#include <onnx.h>

static const unsigned char mnist_onnx[] = {
	0x08, 0x03, 0x12, 0x04, 0x43, 0x4e, 0x54, 0x4b, 0x1a, 0x05, 0x32, 0x2e,
	0x35, 0x2e, 0x31, 0x22, 0x07, 0x61, 0x69, 0x2e, 0x63, 0x6e, 0x74, 0x6b,
	0x28, 0x01, 0x3a, 0xb2, 0xce, 0x01, 0x0a, 0x62, 0x0a, 0x0c, 0x50, 0x61,
	0x72, 0x61, 0x6d, 0x65, 0x74, 0x65, 0x72, 0x31, 0x39, 0x33, 0x0a, 0x1b,
	0x50, 0x61, 0x72, 0x61, 0x6d, 0x65, 0x74, 0x65, 0x72, 0x31, 0x39, 0x33,
	0x5f, 0x72, 0x65, 0x73, 0x68, 0x61, 0x70, 0x65, 0x31, 0x5f, 0x73, 0x68,
	0x61, 0x70, 0x65, 0x12, 0x15, 0x50, 0x61, 0x72, 0x61, 0x6d, 0x65, 0x74,
	0x65, 0x72, 0x31, 0x39, 0x33, 0x5f, 0x72, 0x65, 0x73, 0x68, 0x61, 0x70,
	0x65, 0x31, 0x1a, 0x11, 0x54, 0x69, 0x6d, 0x65, 0x73, 0x32, 0x31, 0x32,
	0x5f, 0x72, 0x65, 0x73, 0x68, 0x61, 0x70, 0x65, 0x31, 0x22, 0x07, 0x52,
	0x65, 0x73, 0x68, 0x61, 0x70, 0x65, 0x32, 0x00, 0x3a, 0x00, 0x0a, 0xab,
	0x01, 0x0a, 0x06, 0x49, 0x6e, 0x70, 0x75, 0x74, 0x33, 0x0a, 0x0a, 0x50,
	0x61, 0x72, 0x61, 0x6d, 0x65, 0x74, 0x65, 0x72, 0x35, 0x12, 0x16, 0x43,
	0x6f, 0x6e, 0x76, 0x6f, 0x6c, 0x75, 0x74, 0x69, 0x6f, 0x6e, 0x32, 0x38,
	0x5f, 0x4f, 0x75, 0x74, 0x70, 0x75, 0x74, 0x5f, 0x30, 0x1a, 0x0d, 0x43,
	0x6f, 0x6e, 0x76, 0x6f, 0x6c, 0x75, 0x74, 0x69, 0x6f, 0x6e, 0x32, 0x38,
	0x22, 0x04, 0x43, 0x6f, 0x6e, 0x76, 0x2a, 0x15, 0x0a, 0x0c, 0x6b, 0x65,
	0x72, 0x6e, 0x65, 0x6c, 0x5f, 0x73, 0x68, 0x61, 0x70, 0x65, 0x40, 0x05,
	0x40, 0x05, 0xa0, 0x01, 0x07, 0x2a, 0x10, 0x0a, 0x07, 0x73, 0x74, 0x72,
	0x69, 0x64, 0x65, 0x73, 0x40, 0x01, 0x40, 0x01, 0xa0, 0x01, 0x07, 0x2a,
	0x19, 0x0a, 0x08, 0x61, 0x75, 0x74, 0x6f, 0x5f, 0x70, 0x61, 0x64, 0x22,
	0x0a, 0x53, 0x41, 0x4d, 0x45, 0x5f, 0x55, 0x50, 0x50, 0x45, 0x52, 0xa0,
	0x01, 0x03, 0x2a, 0x0c, 0x0a, 0x05, 0x67, 0x72, 0x6f, 0x75, 0x70, 0x18,
	0x01, 0xa0, 0x01, 0x02, 0x2a, 0x12, 0x0a, 0x09, 0x64, 0x69, 0x6c, 0x61,
	0x74, 0x69, 0x6f, 0x6e, 0x73, 0x40, 0x01, 0x40, 0x01, 0xa0, 0x01, 0x07,
	0x32, 0x00, 0x3a, 0x00, 0x0a, 0x46, 0x0a, 0x16, 0x43, 0x6f, 0x6e, 0x76,
	0x6f, 0x6c, 0x75, 0x74, 0x69, 0x6f, 0x6e, 0x32, 0x38, 0x5f, 0x4f, 0x75,
	0x74, 0x70, 0x75, 0x74, 0x5f, 0x30, 0x0a, 0x0a, 0x50, 0x61, 0x72, 0x61,
	0x6d, 0x65, 0x74, 0x65, 0x72, 0x36, 0x12, 0x0f, 0x50, 0x6c, 0x75, 0x73,
	0x33, 0x30, 0x5f, 0x4f, 0x75, 0x74, 0x70, 0x75, 0x74, 0x5f, 0x30, 0x1a,
	0x06, 0x50, 0x6c, 0x75, 0x73, 0x33, 0x30, 0x22, 0x03, 0x41, 0x64, 0x64,
	0x32, 0x00, 0x3a, 0x00, 0x0a, 0x34, 0x0a, 0x0f, 0x50, 0x6c, 0x75, 0x73,
	0x33, 0x30, 0x5f, 0x4f, 0x75, 0x74, 0x70, 0x75, 0x74, 0x5f, 0x30, 0x12,
	0x0f, 0x52, 0x65, 0x4c, 0x55, 0x33, 0x32, 0x5f, 0x4f, 0x75, 0x74, 0x70,
	0x75, 0x74, 0x5f, 0x30, 0x1a, 0x06, 0x52, 0x65, 0x4c, 0x55, 0x33, 0x32,
	0x22, 0x04, 0x52, 0x65, 0x6c, 0x75, 0x32, 0x00, 0x3a, 0x00, 0x0a, 0x90,
	0x01, 0x0a, 0x0f, 0x52, 0x65, 0x4c, 0x55, 0x33, 0x32, 0x5f, 0x4f, 0x75,
	0x74, 0x70, 0x75, 0x74, 0x5f, 0x30, 0x12, 0x12, 0x50, 0x6f, 0x6f, 0x6c,
	0x69, 0x6e, 0x67, 0x36, 0x36, 0x5f, 0x4f, 0x75, 0x74, 0x70, 0x75, 0x74,
	0x5f, 0x30, 0x1a, 0x09, 0x50, 0x6f, 0x6f, 0x6c, 0x69, 0x6e, 0x67, 0x36,
	0x36, 0x22, 0x07, 0x4d, 0x61, 0x78, 0x50, 0x6f, 0x6f, 0x6c, 0x2a, 0x15,
	0x0a, 0x0c, 0x6b, 0x65, 0x72, 0x6e, 0x65, 0x6c, 0x5f, 0x73, 0x68, 0x61,
	0x70, 0x65, 0x40, 0x02, 0x40, 0x02, 0xa0, 0x01, 0x07, 0x2a, 0x10, 0x0a,
	0x07, 0x73, 0x74, 0x72, 0x69, 0x64, 0x65, 0x73, 0x40, 0x02, 0x40, 0x02,
	0xa0, 0x01, 0x07, 0x2a, 0x11, 0x0a, 0x04, 0x70, 0x61, 0x64, 0x73, 0x40,
	0x00, 0x40, 0x00, 0x40, 0x00, 0x40, 0x00, 0xa0, 0x01, 0x07, 0x2a, 0x15,
	0x0a, 0x08, 0x61, 0x75, 0x74, 0x6f, 0x5f, 0x70, 0x61, 0x64, 0x22, 0x06,
	0x4e, 0x4f, 0x54, 0x53, 0x45, 0x54, 0xa0, 0x01, 0x03, 0x32, 0x00, 0x3a,
	0x00, 0x0a, 0xba, 0x01, 0x0a, 0x12, 0x50, 0x6f, 0x6f, 0x6c, 0x69, 0x6e,
	0x67, 0x36, 0x36, 0x5f, 0x4f, 0x75, 0x74, 0x70, 0x75, 0x74, 0x5f, 0x30,
	0x0a, 0x0b, 0x50, 0x61, 0x72, 0x61, 0x6d, 0x65, 0x74, 0x65, 0x72, 0x38,
	0x37, 0x12, 0x17, 0x43, 0x6f, 0x6e, 0x76, 0x6f, 0x6c, 0x75, 0x74, 0x69,
	0x6f, 0x6e, 0x31, 0x31, 0x30, 0x5f, 0x4f, 0x75, 0x74, 0x70, 0x75, 0x74,
	0x5f, 0x30, 0x1a, 0x0e, 0x43, 0x6f, 0x6e, 0x76, 0x6f, 0x6c, 0x75, 0x74,
	0x69, 0x6f, 0x6e, 0x31, 0x31, 0x30, 0x22, 0x04, 0x43, 0x6f, 0x6e, 0x76,
	0x2a, 0x15, 0x0a, 0x0c, 0x6b, 0x65, 0x72, 0x6e, 0x65, 0x6c, 0x5f, 0x73,
	0x68, 0x61, 0x70, 0x65, 0x40, 0x05, 0x40, 0x05, 0xa0, 0x01, 0x07, 0x2a,
	0x10, 0x0a, 0x07, 0x73, 0x74, 0x72, 0x69, 0x64, 0x65, 0x73, 0x40, 0x01,
	0x40, 0x01, 0xa0, 0x01, 0x07, 0x2a, 0x19, 0x0a, 0x08, 0x61, 0x75, 0x74,
	0x6f, 0x5f, 0x70, 0x61, 0x64, 0x22, 0x0a, 0x53, 0x41, 0x4d, 0x45, 0x5f,
	0x55, 0x50, 0x50, 0x45, 0x52, 0xa0, 0x01, 0x03, 0x2a, 0x0c, 0x0a, 0x05,
	0x67, 0x72, 0x6f, 0x75, 0x70, 0x18, 0x01, 0xa0, 0x01, 0x02, 0x2a, 0x12,
	0x0a, 0x09, 0x64, 0x69, 0x6c, 0x61, 0x74, 0x69, 0x6f, 0x6e, 0x73, 0x40,
	0x01, 0x40, 0x01, 0xa0, 0x01, 0x07, 0x32, 0x00, 0x3a, 0x00, 0x0a, 0x4a,
	0x0a, 0x17, 0x43, 0x6f, 0x6e, 0x76, 0x6f, 0x6c, 0x75, 0x74, 0x69, 0x6f,
	0x6e, 0x31, 0x31, 0x30, 0x5f, 0x4f, 0x75, 0x74, 0x70, 0x75, 0x74, 0x5f,
	0x30, 0x0a, 0x0b, 0x50, 0x61, 0x72, 0x61, 0x6d, 0x65, 0x74, 0x65, 0x72,
	0x38, 0x38, 0x12, 0x10, 0x50, 0x6c, 0x75, 0x73, 0x31, 0x31, 0x32, 0x5f,
	0x4f, 0x75, 0x74, 0x70, 0x75, 0x74, 0x5f, 0x30, 0x1a, 0x07, 0x50, 0x6c,
	0x75, 0x73, 0x31, 0x31, 0x32, 0x22, 0x03, 0x41, 0x64, 0x64, 0x32, 0x00,
	0x3a, 0x00, 0x0a, 0x37, 0x0a, 0x10, 0x50, 0x6c, 0x75, 0x73, 0x31, 0x31,
	0x32, 0x5f, 0x4f, 0x75, 0x74, 0x70, 0x75, 0x74, 0x5f, 0x30, 0x12, 0x10,
	0x52, 0x65, 0x4c, 0x55, 0x31, 0x31, 0x34, 0x5f, 0x4f, 0x75, 0x74, 0x70,
	0x75, 0x74, 0x5f, 0x30, 0x1a, 0x07, 0x52, 0x65, 0x4c, 0x55, 0x31, 0x31,
	0x34, 0x22, 0x04, 0x52, 0x65, 0x6c, 0x75, 0x32, 0x00, 0x3a, 0x00, 0x0a,
	0x93, 0x01, 0x0a, 0x10, 0x52, 0x65, 0x4c, 0x55, 0x31, 0x31, 0x34, 0x5f,
	0x4f, 0x75, 0x74, 0x70, 0x75, 0x74, 0x5f, 0x30, 0x12, 0x13, 0x50, 0x6f,
	0x6f, 0x6c, 0x69, 0x6e, 0x67, 0x31, 0x36, 0x30, 0x5f, 0x4f, 0x75, 0x74,
	0x70, 0x75, 0x74, 0x5f, 0x30, 0x1a, 0x0a, 0x50, 0x6f, 0x6f, 0x6c, 0x69,
	0x6e, 0x67, 0x31, 0x36, 0x30, 0x22, 0x07, 0x4d, 0x61, 0x78, 0x50, 0x6f,
	0x6f, 0x6c, 0x2a, 0x15, 0x0a, 0x0c, 0x6b, 0x65, 0x72, 0x6e, 0x65, 0x6c,
	0x5f, 0x73, 0x68, 0x61, 0x70, 0x65, 0x40, 0x03, 0x40, 0x03, 0xa0, 0x01,
	0x07, 0x2a, 0x10, 0x0a, 0x07, 0x73, 0x74, 0x72, 0x69, 0x64, 0x65, 0x73,
	0x40, 0x03, 0x40, 0x03, 0xa0, 0x01, 0x07, 0x2a, 0x11, 0x0a, 0x04, 0x70,
	0x61, 0x64, 0x73, 0x40, 0x00, 0x40, 0x00, 0x40, 0x00, 0x40, 0x00, 0xa0,
	0x01, 0x07, 0x2a, 0x15, 0x0a, 0x08, 0x61, 0x75, 0x74, 0x6f, 0x5f, 0x70,
	0x61, 0x64, 0x22, 0x06, 0x4e, 0x4f, 0x54, 0x53, 0x45, 0x54, 0xa0, 0x01,
	0x03, 0x32, 0x00, 0x3a, 0x00, 0x0a, 0x77, 0x0a, 0x13, 0x50, 0x6f, 0x6f,
	0x6c, 0x69, 0x6e, 0x67, 0x31, 0x36, 0x30, 0x5f, 0x4f, 0x75, 0x74, 0x70,
	0x75, 0x74, 0x5f, 0x30, 0x0a, 0x22, 0x50, 0x6f, 0x6f, 0x6c, 0x69, 0x6e,
	0x67, 0x31, 0x36, 0x30, 0x5f, 0x4f, 0x75, 0x74, 0x70, 0x75, 0x74, 0x5f,
	0x30, 0x5f, 0x72, 0x65, 0x73, 0x68, 0x61, 0x70, 0x65, 0x30, 0x5f, 0x73,
	0x68, 0x61, 0x70, 0x65, 0x12, 0x1c, 0x50, 0x6f, 0x6f, 0x6c, 0x69, 0x6e,
	0x67, 0x31, 0x36, 0x30, 0x5f, 0x4f, 0x75, 0x74, 0x70, 0x75, 0x74, 0x5f,
	0x30, 0x5f, 0x72, 0x65, 0x73, 0x68, 0x61, 0x70, 0x65, 0x30, 0x1a, 0x11,
	0x54, 0x69, 0x6d, 0x65, 0x73, 0x32, 0x31, 0x32, 0x5f, 0x72, 0x65, 0x73,
	0x68, 0x61, 0x70, 0x65, 0x30, 0x22, 0x07, 0x52, 0x65, 0x73, 0x68, 0x61,
	0x70, 0x65, 0x32, 0x00, 0x3a, 0x00, 0x0a, 0x5e, 0x0a, 0x1c, 0x50, 0x6f,
	0x6f, 0x6c, 0x69, 0x6e, 0x67, 0x31, 0x36, 0x30, 0x5f, 0x4f, 0x75, 0x74,
	0x70, 0x75, 0x74, 0x5f, 0x30, 0x5f, 0x72, 0x65, 0x73, 0x68, 0x61, 0x70,
	0x65, 0x30, 0x0a, 0x15, 0x50, 0x61, 0x72, 0x61, 0x6d, 0x65, 0x74, 0x65,
	0x72, 0x31, 0x39, 0x33, 0x5f, 0x72, 0x65, 0x73, 0x68, 0x61, 0x70, 0x65,
	0x31, 0x12, 0x11, 0x54, 0x69, 0x6d, 0x65, 0x73, 0x32, 0x31, 0x32, 0x5f,
	0x4f, 0x75, 0x74, 0x70, 0x75, 0x74, 0x5f, 0x30, 0x1a, 0x08, 0x54, 0x69,
	0x6d, 0x65, 0x73, 0x32, 0x31, 0x32, 0x22, 0x06, 0x4d, 0x61, 0x74, 0x4d,
	0x75, 0x6c, 0x32, 0x00, 0x3a, 0x00, 0x0a, 0x45, 0x0a, 0x11, 0x54, 0x69,
	0x6d, 0x65, 0x73, 0x32, 0x31, 0x32, 0x5f, 0x4f, 0x75, 0x74, 0x70, 0x75,
	0x74, 0x5f, 0x30, 0x0a, 0x0c, 0x50, 0x61, 0x72, 0x61, 0x6d, 0x65, 0x74,
	0x65, 0x72, 0x31, 0x39, 0x34, 0x12, 0x10, 0x50, 0x6c, 0x75, 0x73, 0x32,
	0x31, 0x34, 0x5f, 0x4f, 0x75, 0x74, 0x70, 0x75, 0x74, 0x5f, 0x30, 0x1a,
	0x07, 0x50, 0x6c, 0x75, 0x73, 0x32, 0x31, 0x34, 0x22, 0x03, 0x41, 0x64,
	0x64, 0x32, 0x00, 0x3a, 0x00, 0x12, 0x09, 0x43, 0x4e, 0x54, 0x4b, 0x47,
	0x72, 0x61, 0x70, 0x68, 0x2a, 0x9b, 0x50, 0x08, 0x10, 0x08, 0x04, 0x08,
	0x04, 0x08, 0x0a, 0x10, 0x01, 0x22, 0x80, 0x50, 0x05, 0xaa, 0xbb, 0x3d,
	0x63, 0xb3, 0xf8, 0x3d, 0x52, 0xcc, 0xae, 0x3d, 0x4e, 0x19, 0xfb, 0x3d,
	0x86, 0x3f, 0xca, 0xbd, 0x86, 0xa1, 0xe5, 0xbd, 0x9a, 0x5c, 0x12, 0xbd,
	0x12, 0x25, 0xc5, 0xbd, 0xc6, 0x6f, 0x17, 0xbe, 0x3f, 0xc8, 0x0e, 0x3d,
	0xdd, 0x6f, 0x46, 0xbd, 0x95, 0x2d, 0x0c, 0x3e, 0x5d, 0x8f, 0x15, 0x3e,
	0x9d, 0x49, 0xf5, 0xbd, 0x94, 0x08, 0x55, 0x3e, 0xa2, 0x95, 0x68, 0xbe,
	0x7c, 0xbf, 0xd8, 0x3e, 0x82, 0x57, 0x70, 0x3d, 0xdd, 0x54, 0x2b, 0xbe,
	0x39, 0xdd, 0xbd, 0xbe, 0x5d, 0xda, 0x44, 0xbe, 0xea, 0x2a, 0xc1, 0x3d,
	0x7d, 0xe1, 0xbf, 0x3d, 0xea, 0xf9, 0x2a, 0xbc, 0x64, 0x20, 0x6c, 0x3e,
	0x7c, 0xa8, 0xe7, 0xbe, 0xb1, 0xe4, 0x23, 0x3b, 0x56, 0xbd, 0x4b, 0xbc,
	0xd8, 0x29, 0x02, 0x3d, 0x4f, 0xcc, 0x9b, 0xbe, 0x33, 0xab, 0x93, 0x3c,
	0xf8, 0xe9, 0xc6, 0x3c, 0xef, 0x1f, 0x93, 0x3e, 0x20, 0x18, 0x2f, 0x3e,
	0x31, 0x5c, 0x98, 0xbd, 0x7b, 0xbb, 0x90, 0x3c, 0xbe, 0xc5, 0xd7, 0xbd,
	0xb8, 0x8c, 0xa7, 0xbd, 0xfb, 0x43, 0x75, 0x3d, 0xb3, 0x3e, 0xf8, 0x39,
	0x36, 0x31, 0x1d, 0xbe, 0x74, 0x0c, 0xf7, 0x3d, 0xca, 0x7c, 0xdc, 0x3d,
	0xe5, 0x73, 0xc1, 0x3d, 0xc1, 0x0d, 0x8f, 0xbd, 0xf4, 0x65, 0xd2, 0xbc,
	0x28, 0x80, 0xdf, 0x3d, 0xef, 0x58, 0xaa, 0xbd, 0x35, 0x1f, 0xa9, 0x3d,
	0xc3, 0xec, 0x33, 0xbe, 0x31, 0x34, 0x2c, 0xbe, 0x92, 0x53, 0xd7, 0x3d,
	0x45, 0x7f, 0x32, 0xbe, 0x96, 0x83, 0xa8, 0xbd, 0x9d, 0xf3, 0xed, 0x3e,
	0x0c, 0xe5, 0xf7, 0x3c, 0xba, 0x29, 0x23, 0xbe, 0x69, 0x5f, 0x4c, 0x3e,
	0x78, 0xef, 0xce, 0xbd, 0x72, 0x34, 0xfd, 0xbe, 0xe6, 0xbf, 0xa8, 0x3e,
	0x22, 0xc5, 0x35, 0x3e, 0xce, 0xa0, 0xd2, 0x3e, 0x6c, 0x70, 0xfc, 0x3d,
	0xfd, 0x2f, 0x8d, 0xbe, 0x1a, 0xbe, 0xee, 0xbe, 0xf1, 0x17, 0xbe, 0xbe,
	0xdf, 0xfc, 0xab, 0xbc, 0xad, 0x12, 0x03, 0xbe, 0x22, 0xe7, 0x46, 0x3d,
	0xbc, 0x69, 0xc3, 0x3e, 0xcd, 0x8b, 0x6d, 0xbe, 0x1c, 0xd6, 0xd0, 0x3e,
	0xed, 0x9d, 0xb9, 0x3c, 0x22, 0x76, 0x9f, 0x3d, 0x32, 0x91, 0x2b, 0xbf,
	0xd1, 0x93, 0x7a, 0xbd, 0xfe, 0x8e, 0x3f, 0x3d, 0x13, 0xea, 0x06, 0xbd,
	0x6a, 0xa9, 0x11, 0x3e, 0xee, 0xa3, 0x03, 0xbe, 0x28, 0xc8, 0xd4, 0x3c,
	0x17, 0xc4, 0x12, 0xbc, 0x8d, 0xb2, 0x37, 0x3e, 0xb6, 0x0d, 0x09, 0xbd,
	0x4b, 0x7b, 0xde, 0xbc, 0x67, 0x6c, 0x05, 0x3e, 0x36, 0x56, 0x3a, 0xbd,
	0x04, 0xdf, 0x5b, 0x3d, 0x28, 0xfe, 0xb2, 0x3c, 0x6a, 0x7c, 0xc3, 0xbb,
	0xec, 0x6f, 0x4b, 0xbd, 0x4b, 0xba, 0x22, 0xbe, 0x3a, 0xe9, 0xde, 0x3d,
	0xd5, 0x25, 0x2e, 0xbe, 0x32, 0xfb, 0xb2, 0x3e, 0x49, 0x7c, 0x32, 0xbe,
	0x4c, 0x73, 0x29, 0x3e, 0x2f, 0xbd, 0x0f, 0xbe, 0x4c, 0xe7, 0x31, 0xbe,
	0xb1, 0xeb, 0x15, 0xbd, 0xa0, 0x43, 0x24, 0x3d, 0x79, 0x90, 0x44, 0x3e,
	0xed, 0x25, 0x2e, 0x3d, 0xd6, 0xc1, 0x27, 0xbe, 0x7b, 0x42, 0xe2, 0x3e,
	0x86, 0xa0, 0x9d, 0x3d, 0xb3, 0x12, 0xe0, 0xbe, 0x82, 0xa9, 0x4a, 0x3d,
	0xab, 0x6d, 0x71, 0xbe, 0xad, 0x3a, 0xc9, 0xbd, 0xf6, 0x99, 0xcf, 0xbe,
	0xc0, 0xfc, 0xbe, 0xbe, 0xb9, 0x89, 0x79, 0x3e, 0x4d, 0x87, 0x05, 0xbf,
	0xa0, 0x1f, 0x11, 0x3f, 0x0c, 0x23, 0x0e, 0x3f, 0x2b, 0xdf, 0xd5, 0xbd,
	0x30, 0x59, 0x38, 0x3e, 0x91, 0xfb, 0xe8, 0xbd, 0x0e, 0x68, 0x22, 0xbd,
	0x53, 0xab, 0xe5, 0xbd, 0x39, 0x57, 0x1b, 0xbb, 0xa5, 0x0b, 0x4e, 0xbb,
	0x17, 0x78, 0xd2, 0xbd, 0x32, 0xfb, 0x9b, 0x3c, 0xf5, 0xbe, 0x93, 0xbd,
	0xbd, 0xec, 0x80, 0xbd, 0xc6, 0xff, 0xb1, 0x3d, 0xe4, 0xd1, 0x73, 0x3d,
	0x14, 0xb7, 0x38, 0x3e, 0xa7, 0xef, 0xdc, 0x3d, 0x69, 0xb8, 0x48, 0xbe,
	0x81, 0x57, 0x03, 0x3c, 0xa3, 0xa3, 0x81, 0x3d, 0x43, 0x85, 0x72, 0x3c,
	0x80, 0x3c, 0x93, 0xbd, 0x31, 0xe2, 0xda, 0x3d, 0x8b, 0xed, 0x7a, 0xbe,
	0x00, 0xe4, 0x79, 0x3c, 0x02, 0x9d, 0xab, 0xbe, 0x98, 0x4c, 0x06, 0xbd,
	0xaa, 0xe3, 0x22, 0xbe, 0x0e, 0x90, 0x15, 0x3f, 0xd0, 0x8b, 0x96, 0xbd,
	0x79, 0x07, 0x04, 0x3f, 0xa6, 0x02, 0x25, 0x3e, 0xa8, 0x38, 0x4d, 0xbe,
	0xde, 0x5a, 0xb0, 0x3d, 0xe3, 0x91, 0x88, 0xbe, 0xf5, 0x0c, 0xf7, 0xbe,
	0x31, 0xb9, 0x25, 0x3d, 0x39, 0x0a, 0xd4, 0xbc, 0x56, 0x59, 0x99, 0x3e,
	0x45, 0xde, 0x5e, 0xbe, 0x40, 0x39, 0xa6, 0x3d, 0x99, 0x7a, 0x88, 0x3e,
	0x50, 0x92, 0x94, 0xbe, 0x95, 0x7f, 0x88, 0x3e, 0xc0, 0xec, 0x4f, 0xbe,
	0xc7, 0x8f, 0xfe, 0xbd, 0x91, 0x79, 0xc3, 0x3b, 0x5d, 0xbf, 0x65, 0x3e,
	0x6a, 0xd1, 0x0b, 0x3e, 0xa7, 0x99, 0xe5, 0xbc, 0x96, 0xd4, 0x8f, 0xbe,
	0x54, 0xe7, 0xba, 0x3c, 0xd6, 0x57, 0x85, 0x3d, 0xea, 0x8b, 0x15, 0xbe,
	0x45, 0x26, 0xd1, 0x3d, 0x26, 0x8b, 0x0c, 0xbe, 0xd3, 0xcb, 0x65, 0x3d,
	0xe6, 0x20, 0xa6, 0xbd, 0x54, 0x0c, 0xe9, 0x3b, 0xff, 0xa5, 0x53, 0xbe,
	0xaa, 0xd5, 0xe7, 0x3d, 0x60, 0x75, 0x38, 0xbe, 0x3a, 0x3a, 0xb8, 0x3e,
	0x63, 0x54, 0x6b, 0xbe, 0xfb, 0xc4, 0xfe, 0x3b, 0xe0, 0xc1, 0x59, 0xbe,
	0xd2, 0xef, 0xd1, 0xbd, 0xc0, 0x90, 0xba, 0x3d, 0xa1, 0xee, 0x8a, 0x3e,
	0x57, 0x86, 0x14, 0xbe, 0x60, 0xa7, 0xb2, 0x3d, 0x96, 0xcb, 0x8f, 0xbd,
	0x3c, 0x18, 0x0b, 0x3e, 0xc1, 0xca, 0xf0, 0x3d, 0xdc, 0x49, 0xc7, 0xbb,
	0xc4, 0x00, 0x1e, 0xbd, 0xd2, 0x14, 0xb0, 0x3d, 0xcc, 0x32, 0x42, 0x3d,
	0xf3, 0x13, 0x16, 0xbd, 0xfc, 0x3e, 0xa7, 0x3d, 0x14, 0x7a, 0xac, 0x3d,
	0x5a, 0xfa, 0x09, 0x3e, 0x04, 0x16, 0x81, 0xbd, 0x30, 0xb8, 0xb5, 0x3b,
	0x52, 0x4b, 0x9e, 0x3d, 0xfe, 0xc9, 0xc4, 0xbc, 0xd8, 0x42, 0x97, 0xbd,
	0x7f, 0x7c, 0x78, 0x3e, 0x0a, 0x17, 0x4d, 0x3e, 0xc2, 0x95, 0x02, 0xbe,
	0x22, 0x6c, 0xc0, 0xbe, 0x5e, 0xc1, 0x83, 0xbe, 0x93, 0x54, 0x2e, 0x3e,
	0xf4, 0xed, 0x94, 0xbd, 0x26, 0xb8, 0xdf, 0xb9, 0x0e, 0x9f, 0x0f, 0xbd,
	0xf5, 0x2b, 0x81, 0x3e, 0xcd, 0xb5, 0x97, 0x3e, 0x39, 0x29, 0x35, 0x3e,
	0x70, 0x71, 0xd0, 0xbe, 0x70, 0x8c, 0x37, 0xbe, 0xfe, 0x47, 0xf9, 0xbe,
	0x0a, 0x04, 0x3f, 0x3f, 0x1e, 0x1f, 0x32, 0xbd, 0xe8, 0xd5, 0x26, 0xbd,
	0xbe, 0xdb, 0x67, 0x3d, 0x86, 0x22, 0x91, 0xbe, 0x1d, 0x52, 0x8a, 0x3d,
	0x9a, 0xaf, 0x8c, 0xbe, 0x2f, 0x34, 0x97, 0xbe, 0x71, 0x8f, 0xa3, 0x3e,
	0x2b, 0x55, 0xcc, 0xbd, 0xba, 0xc1, 0xb7, 0x3e, 0xae, 0x65, 0x0c, 0xbe,
	0xa2, 0xb1, 0x78, 0xbd, 0x84, 0xa8, 0xb6, 0x3d, 0x0a, 0xbf, 0xfd, 0xbd,
	0x23, 0x7b, 0xf6, 0xbe, 0x80, 0xc7, 0xf7, 0xbd, 0x6d, 0x95, 0x9a, 0xbd,
	0xaf, 0xce, 0x01, 0x3f, 0x20, 0x96, 0x25, 0x3e, 0x0f, 0x0e, 0x09, 0x3d,
	0x30, 0x32, 0x54, 0xbc, 0x12, 0x45, 0xe1, 0x3d, 0xdc, 0x87, 0x39, 0xbe,
	0xef, 0x16, 0x56, 0xbe, 0x4a, 0xcc, 0x2e, 0x3e, 0x8e, 0x75, 0x55, 0x3e,
	0x6e, 0xdf, 0xd4, 0x3d, 0xa4, 0xe6, 0x28, 0x3e, 0x55, 0xc0, 0x54, 0xbd,
	0xfc, 0x7b, 0x98, 0x3e, 0xf2, 0x62, 0xf5, 0xbd, 0x25, 0x8b, 0x35, 0xbe,
	0x72, 0x06, 0x12, 0xbe, 0xef, 0x44, 0x3e, 0xbb, 0x23, 0xb3, 0x20, 0xbe,
	0xfa, 0x98, 0x7a, 0xbd, 0xc6, 0x16, 0x3c, 0x3e, 0x0d, 0x25, 0x8c, 0x3e,
	0x2e, 0x87, 0xb8, 0xbd, 0xf7, 0x71, 0xf2, 0xbd, 0x07, 0x45, 0xdf, 0x3c,
	0xa5, 0x2c, 0xab, 0x3e, 0xc6, 0xc4, 0x13, 0xbe, 0xa5, 0xe2, 0x93, 0xbe,
	0x0a, 0x91, 0x82, 0xbe, 0xea, 0x38, 0xc7, 0xbd, 0xc6, 0xe8, 0x13, 0x3f,
	0xf8, 0x23, 0x95, 0xbe, 0x5c, 0x2f, 0x3e, 0x3e, 0x64, 0xc8, 0x6e, 0xbe,
	0xbc, 0x06, 0x3a, 0x3e, 0x46, 0xf1, 0x29, 0xbc, 0xf2, 0x45, 0x1c, 0xbd,
	0x42, 0x97, 0xb6, 0xbd, 0x85, 0x86, 0x25, 0x3f, 0x81, 0x6c, 0x2b, 0x3e,
	0x67, 0xd8, 0x01, 0x3e, 0x10, 0x8e, 0xc8, 0xbd, 0x28, 0x4e, 0x5b, 0x3e,
	0xc6, 0x70, 0x87, 0x3e, 0xe5, 0xa4, 0x5c, 0x3d, 0x88, 0x6f, 0x42, 0xbf,
	0x76, 0xc6, 0x4f, 0xbe, 0xe2, 0x59, 0xb2, 0x3e, 0xb7, 0xc4, 0x0c, 0xbe,
	0x57, 0xdf, 0x92, 0x3e, 0x46, 0xef, 0x5b, 0x3e, 0x78, 0xca, 0xc9, 0x3d,
	0xb6, 0x30, 0x76, 0xbe, 0xe9, 0x5e, 0x23, 0x3e, 0xa9, 0x36, 0x68, 0xbe,
	0x2d, 0x95, 0x8c, 0x3c, 0x24, 0xc4, 0x3a, 0x3c, 0xf8, 0x64, 0x33, 0x3e,
	0x03, 0x7e, 0x4c, 0x3d, 0x4d, 0x95, 0x9e, 0x3d, 0x64, 0x90, 0x3b, 0xbd,
	0x2d, 0x5e, 0xc8, 0x3c, 0xc6, 0xb6, 0x52, 0xbd, 0x10, 0x3d, 0xfa, 0xbe,
	0xb5, 0xc4, 0x86, 0xbd, 0x6e, 0x4e, 0xce, 0x3d, 0x47, 0x64, 0x89, 0x3e,
	0xc8, 0x1d, 0x23, 0xbd, 0x02, 0x90, 0xc8, 0x3d, 0xdf, 0x2a, 0x22, 0xbd,
	0xdf, 0xd1, 0x9b, 0xbd, 0xe7, 0xa9, 0xda, 0xb8, 0x62, 0xe2, 0x05, 0x3d,
	0xb2, 0xb6, 0x9f, 0xbe, 0x90, 0x6d, 0xb6, 0x3d, 0x8d, 0x57, 0x94, 0xbe,
	0x2f, 0xc8, 0xa1, 0xbd, 0x19, 0x4c, 0x7e, 0x3e, 0xc9, 0xed, 0x27, 0x3f,
	0x60, 0x46, 0x94, 0xbe, 0x80, 0x53, 0xb1, 0x3e, 0x08, 0xef, 0xda, 0xbe,
	0x49, 0x13, 0x80, 0xbd, 0x2e, 0x92, 0x29, 0x3d, 0x1b, 0x33, 0xc2, 0xbd,
	0xf4, 0x15, 0x12, 0xbe, 0x5a, 0x56, 0x15, 0x3d, 0x5d, 0xee, 0x06, 0xbe,
	0x7b, 0x1c, 0x39, 0x3c, 0x2a, 0xd0, 0x2b, 0xbd, 0x59, 0xb7, 0xcf, 0xbc,
	0x02, 0x8a, 0x35, 0xbe, 0xbf, 0x85, 0x47, 0x3d, 0xcf, 0x4b, 0xe9, 0x3b,
	0x08, 0xfa, 0x0f, 0xbd, 0xcd, 0x18, 0xf7, 0xbd, 0x99, 0xeb, 0x1c, 0x3d,
	0x36, 0x6c, 0x49, 0xbe, 0x64, 0xde, 0x1b, 0x3e, 0xff, 0x48, 0x88, 0x3d,
	0x77, 0x43, 0xda, 0x3c, 0x92, 0x9b, 0x3a, 0xbe, 0xc0, 0x8f, 0x4d, 0xbe,
	0xf2, 0x93, 0x7d, 0x3e, 0x73, 0x26, 0x12, 0x3e, 0xba, 0xea, 0x4e, 0xbc,
	0x0a, 0x0b, 0x01, 0x3e, 0xa6, 0xb4, 0x94, 0xbc, 0xd9, 0xb2, 0x3d, 0xbc,
	0x9d, 0xf2, 0xe8, 0x3d, 0x20, 0xb1, 0xaa, 0xbe, 0xa4, 0x3d, 0x06, 0xbe,
	0xa0, 0x1f, 0x14, 0xbe, 0xcd, 0x01, 0x60, 0x3e, 0xff, 0x2c, 0x94, 0x3e,
	0x09, 0x0b, 0x80, 0x3e, 0xaa, 0x24, 0x32, 0x3e, 0x0e, 0xd6, 0xd0, 0x3d,
	0x76, 0x25, 0x83, 0xbe, 0xac, 0x73, 0xe5, 0xbd, 0xa8, 0x33, 0x72, 0xbd,
	0x89, 0x35, 0x10, 0x3d, 0xd7, 0x36, 0x27, 0xbd, 0xcc, 0x0b, 0xb5, 0xbd,
	0xd5, 0x5a, 0x8f, 0xbc, 0xac, 0x7e, 0x0f, 0x3d, 0x8d, 0xd4, 0xd3, 0xbd,
	0x23, 0x2e, 0x8e, 0x3d, 0x96, 0x63, 0x90, 0x3e, 0x49, 0x4c, 0x88, 0x3d,
	0x84, 0x7f, 0x2a, 0xbe, 0x7e, 0x88, 0x87, 0x3d, 0xcb, 0x7c, 0x28, 0xbe,
	0x23, 0x28, 0xd1, 0x3e, 0xd1, 0x32, 0x80, 0x3d, 0x89, 0x48, 0x82, 0xbd,
	0x58, 0x5a, 0x91, 0xbe, 0x42, 0x87, 0x3b, 0x3e, 0x07, 0x2b, 0xfd, 0x3e,
	0x68, 0xef, 0x97, 0x3e, 0xd7, 0x19, 0x8b, 0xbe, 0x3d, 0xf1, 0xfa, 0xbb,
	0x4f, 0x4a, 0xfe, 0xbe, 0xe3, 0xbc, 0xaf, 0x3e, 0xea, 0xbb, 0xc2, 0x3d,
	0x37, 0xdc, 0x8d, 0xbe, 0x4d, 0xba, 0x45, 0x3e, 0x51, 0xf5, 0x78, 0xbe,
	0x7d, 0x3f, 0x64, 0x3e, 0x29, 0xf5, 0x38, 0x3e, 0x6e, 0x4e, 0xae, 0xbe,
	0x9f, 0x80, 0xc9, 0x3c, 0x2c, 0x0f, 0xf6, 0xbd, 0xcf, 0xc7, 0xaa, 0x3e,
	0x60, 0xb5, 0x73, 0xbe, 0xab, 0x6c, 0xfb, 0x3c, 0x32, 0xd1, 0xaa, 0x3c,
	0x8b, 0x18, 0x6c, 0xbd, 0xf5, 0x57, 0x4b, 0xbc, 0x3e, 0xea, 0x81, 0xbe,
	0x4b, 0x99, 0xac, 0xbe, 0xe4, 0xa0, 0xfe, 0x3e, 0xa1, 0xf0, 0xce, 0x3e,
	0x43, 0x88, 0xb8, 0x3c, 0xbd, 0x17, 0x65, 0xbe, 0x1d, 0x5a, 0x02, 0x3b,
	0x5f, 0x53, 0xa3, 0xbe, 0x1b, 0xb2, 0xf4, 0x3c, 0x49, 0x94, 0x33, 0x3e,
	0xf2, 0x91, 0x5b, 0x3e, 0x28, 0xc2, 0x88, 0x3e, 0xfd, 0x4b, 0xe0, 0x3d,
	0x42, 0xf0, 0x90, 0xbe, 0x2a, 0xc5, 0xa7, 0x3e, 0x63, 0x12, 0x8d, 0x3e,
	0xf1, 0x12, 0xc1, 0xbe, 0xac, 0x98, 0x2c, 0xbf, 0x0c, 0x35, 0xd9, 0xbe,
	0x59, 0xe1, 0x33, 0xbe, 0x88, 0x68, 0x63, 0x3e, 0xf2, 0x9e, 0x06, 0x3f,
	0x29, 0x3e, 0xff, 0x3e, 0x6f, 0xf5, 0x3b, 0xbf, 0x67, 0x67, 0x94, 0xbd,
	0xa6, 0x21, 0x02, 0xbd, 0x55, 0x36, 0x1d, 0x3f, 0xaf, 0xf4, 0x8c, 0x3e,
	0xa7, 0xed, 0x39, 0xbe, 0x1e, 0xd2, 0x30, 0x3c, 0x53, 0x40, 0x8e, 0x3e,
	0x40, 0x48, 0x47, 0x3d, 0xf3, 0x8c, 0x44, 0x3e, 0xcc, 0xaa, 0x11, 0xbe,
	0x7b, 0xd3, 0xc0, 0x3d, 0x03, 0xa0, 0x11, 0xbe, 0xd4, 0x9e, 0x43, 0xbd,
	0xcb, 0x80, 0x0d, 0x3e, 0x86, 0x02, 0xe9, 0x3d, 0x28, 0xa4, 0x11, 0xbb,
	0x6a, 0xf3, 0x46, 0x3c, 0x42, 0x17, 0x03, 0xbe, 0xc5, 0xe7, 0x57, 0x3e,
	0x5a, 0xe2, 0xc9, 0x3d, 0xdf, 0xf1, 0xf0, 0xbb, 0xd0, 0x23, 0xbb, 0xbd,
	0xe7, 0x8e, 0x3e, 0xbe, 0xc4, 0xd9, 0xbf, 0x3d, 0x3f, 0x25, 0x61, 0x3e,
	0xde, 0xcd, 0x61, 0x3c, 0xd9, 0xdf, 0x97, 0x3c, 0xa4, 0x3f, 0xcd, 0x3d,
	0x78, 0x8a, 0x6b, 0x3d, 0x8d, 0xff, 0xb2, 0x3d, 0x28, 0xb5, 0x84, 0xbe,
	0x0e, 0x9f, 0x51, 0x3d, 0x2d, 0x84, 0x01, 0x3d, 0x82, 0xdb, 0x9a, 0x3d,
	0x01, 0xb0, 0x5c, 0xbe, 0x65, 0x70, 0x3d, 0xbe, 0x7b, 0xd1, 0x89, 0x3e,
	0xcf, 0xdd, 0x6d, 0xbe, 0x98, 0xdf, 0x75, 0x3e, 0x86, 0xdf, 0x5a, 0x3e,
	0x15, 0x82, 0x08, 0xbf, 0x08, 0x4b, 0xa1, 0xbd, 0xce, 0xdb, 0x58, 0x3e,
	0x75, 0xa5, 0x2e, 0x3e, 0xa8, 0x48, 0x09, 0x3f, 0x65, 0x4d, 0x4c, 0xbe,
	0x0b, 0x56, 0xb9, 0xbb, 0x5f, 0xe9, 0x47, 0xbe, 0x21, 0x00, 0xfe, 0xbd,
	0x8a, 0x66, 0x8a, 0x3d, 0xaf, 0xa2, 0xf9, 0xbd, 0x22, 0x6e, 0x5f, 0x3d,
	0x81, 0x21, 0x9a, 0xbe, 0x13, 0xe8, 0x0f, 0xba, 0xa0, 0x9e, 0x2f, 0x3e,
	0xf3, 0x2e, 0x45, 0x3f, 0x9e, 0xb3, 0x8a, 0xbe, 0x15, 0x4e, 0x71, 0x3d,
	0x09, 0xf3, 0x12, 0xbe, 0x9c, 0x4e, 0xc1, 0xbc, 0x1f, 0x46, 0xb6, 0xbc,
	0x42, 0xab, 0x6f, 0xbe, 0xed, 0x30, 0x8d, 0xbe, 0x2d, 0x53, 0xce, 0x3d,
	0xd0, 0x2b, 0x08, 0xbe, 0x10, 0xf1, 0x0a, 0xbe, 0xc5, 0x1f, 0x1a, 0x3e,
	0x56, 0x29, 0x0b, 0x3e, 0x9d, 0x4f, 0xab, 0xbd, 0x15, 0xca, 0x12, 0x3e,
	0x35, 0x34, 0xdf, 0x3d, 0xc9, 0x69, 0xe0, 0xbd, 0xad, 0xf9, 0x97, 0x3b,
	0xf1, 0x30, 0xa8, 0x3d, 0xd7, 0x62, 0x69, 0xbd, 0x13, 0x87, 0x05, 0xbd,
	0x32, 0xfb, 0x2a, 0x3e, 0x17, 0xcf, 0xee, 0xbd, 0x24, 0x78, 0x05, 0x3e,
	0xa4, 0x62, 0xed, 0x3d, 0x28, 0x17, 0xac, 0x3d, 0x73, 0x33, 0x0f, 0xbe,
	0x48, 0x2f, 0x8e, 0xbb, 0x69, 0xb3, 0x9a, 0xbd, 0xc8, 0x33, 0x9a, 0x3d,
	0x12, 0xb6, 0x15, 0x3e, 0x83, 0xd5, 0x95, 0xbd, 0x1e, 0xe4, 0x28, 0xbe,
	0x99, 0x51, 0x45, 0xbd, 0x5e, 0xf8, 0xe9, 0x3d, 0x1b, 0x96, 0x29, 0xbe,
	0xce, 0x68, 0xcb, 0xbd, 0xf6, 0x4b, 0x31, 0xbe, 0x14, 0xd5, 0xc8, 0x3d,
	0x50, 0x6e, 0x56, 0x3d, 0x4f, 0xeb, 0x12, 0x3d, 0x67, 0x37, 0x87, 0x39,
	0x9a, 0x06, 0xe2, 0xbd, 0x07, 0xb4, 0xa2, 0x3d, 0x55, 0x83, 0x69, 0xbc,
	0xa4, 0x4b, 0x37, 0x3d, 0x0c, 0xab, 0xc4, 0xbd, 0x0e, 0x70, 0x85, 0xbd,
	0x40, 0xde, 0x98, 0x3c, 0xbe, 0xa6, 0xd8, 0x3d, 0xff, 0xe0, 0xe5, 0x3d,
	0xb7, 0x61, 0x31, 0x3e, 0x35, 0x47, 0x86, 0xbd, 0x55, 0xec, 0x03, 0x3d,
	0x4f, 0x7d, 0x87, 0x3d, 0xc2, 0xef, 0xd2, 0xbd, 0x35, 0xdf, 0x3a, 0xbd,
	0xbb, 0xea, 0xb9, 0xbd, 0x74, 0x16, 0xaf, 0x3d, 0x38, 0xf1, 0x8c, 0xbd,
	0xd6, 0xd4, 0xa8, 0x3e, 0xee, 0x56, 0x0d, 0xbe, 0x13, 0xf7, 0x80, 0xbd,
	0xcd, 0x27, 0x30, 0x3e, 0x4e, 0xc4, 0x6b, 0xbd, 0x4d, 0xb6, 0x0e, 0xbe,
	0x0e, 0x89, 0x8e, 0xbe, 0xde, 0x9a, 0x6e, 0xbb, 0xea, 0x8a, 0x2c, 0xbe,
	0xaa, 0x40, 0xcd, 0x3e, 0x33, 0x99, 0xd7, 0x3d, 0x23, 0x39, 0xf6, 0xbc,
	0xb3, 0xcb, 0xa0, 0xbe, 0xbf, 0xed, 0xd6, 0xbb, 0x60, 0xcd, 0x9a, 0xbc,
	0xbb, 0x37, 0xbd, 0xbc, 0x09, 0xf0, 0x54, 0xbe, 0xc2, 0x62, 0xee, 0x3d,
	0xc6, 0x45, 0x3c, 0xbd, 0x50, 0xbc, 0xf8, 0x3d, 0x3b, 0xb0, 0xf1, 0x3d,
	0x51, 0xe5, 0xb6, 0x3e, 0x9c, 0x09, 0x41, 0xbe, 0x05, 0xe5, 0x07, 0xbe,
	0x24, 0x34, 0x5d, 0x3e, 0x03, 0xc9, 0x91, 0xbd, 0xcd, 0xe6, 0x76, 0xbd,
	0xc6, 0x6e, 0x6a, 0xbc, 0x97, 0xe6, 0xc8, 0x3d, 0x90, 0x55, 0xdd, 0xbd,
	0x76, 0xb1, 0xfd, 0x3c, 0x5f, 0xe7, 0xc7, 0xbd, 0x97, 0xc4, 0xcc, 0x3c,
	0xae, 0xcd, 0x76, 0xbe, 0xa1, 0x0d, 0xe0, 0x3c, 0x9b, 0x0f, 0x0a, 0x3b,
	0x30, 0x4f, 0xf4, 0x3d, 0xd1, 0x86, 0xc6, 0x3d, 0x00, 0x55, 0xa3, 0x3e,
	0x6f, 0x30, 0x2a, 0xbe, 0x54, 0xd9, 0x27, 0x3e, 0x25, 0xfc, 0x7e, 0xbe,
	0x5f, 0xa8, 0x04, 0x3d, 0x22, 0xa2, 0xc2, 0x3d, 0xce, 0x7e, 0x82, 0x3d,
	0x97, 0x51, 0xc9, 0x3e, 0xc9, 0x6a, 0xcc, 0xbe, 0x56, 0x38, 0x42, 0xbe,
	0x4e, 0x51, 0x79, 0xbe, 0xcd, 0xcb, 0xbe, 0x3e, 0xd8, 0xea, 0xb4, 0xbe,
	0xc0, 0x65, 0xae, 0x3b, 0xdb, 0x18, 0x38, 0xbd, 0x13, 0x8a, 0x6f, 0x3d,
	0xb4, 0x3f, 0x86, 0xbe, 0xda, 0x3b, 0x72, 0xbd, 0x08, 0x44, 0xb6, 0xbe,
	0xd0, 0xee, 0x53, 0x3e, 0x16, 0x5b, 0x8a, 0x3e, 0x99, 0xa8, 0x5c, 0x3e,
	0x06, 0x00, 0xb7, 0xbe, 0xf0, 0x13, 0x12, 0xbc, 0x8f, 0x4d, 0xcc, 0xbe,
	0x31, 0xb6, 0x60, 0x3c, 0x44, 0xe4, 0xd8, 0x3c, 0x10, 0x98, 0x11, 0x3e,
	0x6d, 0x61, 0x4f, 0xbe, 0x98, 0xa9, 0x8e, 0x3e, 0x02, 0x21, 0xdb, 0xb9,
	0x0e, 0x1e, 0x45, 0xbe, 0x5a, 0xbf, 0x22, 0x3e, 0xba, 0x4c, 0xbd, 0xbc,
	0x27, 0x95, 0xe6, 0x3c, 0xdc, 0xa7, 0xee, 0x3d, 0xf3, 0x9a, 0x92, 0xbc,
	0x37, 0x68, 0x67, 0xbd, 0x50, 0xe7, 0xa3, 0xbd, 0x51, 0x1b, 0x97, 0xbd,
	0xd0, 0x27, 0xd4, 0xbd, 0xba, 0xc7, 0x2e, 0x3d, 0x04, 0xeb, 0xb0, 0x3e,
	0x5b, 0x02, 0xb6, 0xbe, 0x1b, 0x31, 0x84, 0x3d, 0xb5, 0x11, 0xbe, 0xbd,
	0x03, 0x10, 0xee, 0x3d, 0x24, 0x93, 0x5b, 0x3e, 0x7f, 0x5e, 0x93, 0x3e,
	0xca, 0x53, 0xb8, 0xbe, 0x26, 0xeb, 0xa0, 0xbe, 0xa2, 0x36, 0xb4, 0x3d,
	0x7a, 0xad, 0xce, 0xbe, 0xff, 0xdf, 0x49, 0x3d, 0x2c, 0x58, 0x85, 0x3e,
	0xb5, 0xcc, 0x3a, 0xbd, 0x80, 0x4d, 0xae, 0xbd, 0xf5, 0x12, 0xc5, 0x3e,
	0x15, 0xea, 0x80, 0x3e, 0xf8, 0x4d, 0xf6, 0x3c, 0x40, 0x13, 0x44, 0xbe,
	0x2c, 0x61, 0x2b, 0x3c, 0xfb, 0x36, 0x28, 0xbe, 0xb6, 0x8b, 0xcf, 0x3d,
	0x05, 0x2c, 0x98, 0x3d, 0xe7, 0x94, 0x92, 0x3d, 0x53, 0x41, 0x09, 0xbe,
	0xba, 0x58, 0x44, 0xbe, 0xa9, 0x44, 0x96, 0x3b, 0xec, 0xf2, 0x53, 0x3c,
	0x06, 0x47, 0x87, 0xbc, 0xcb, 0x9f, 0x32, 0x3b, 0x2b, 0x7e, 0x15, 0xbc,
	0x1a, 0xbf, 0xeb, 0x3d, 0x85, 0x4c, 0x8c, 0x3d, 0xac, 0xd3, 0xd3, 0xbd,
	0x8d, 0xf6, 0xed, 0x3d, 0x47, 0x9d, 0x78, 0x3c, 0xaf, 0x60, 0xe1, 0x3c,
	0x62, 0x65, 0xf1, 0xbc, 0xb6, 0xdb, 0xb3, 0x3d, 0x73, 0x57, 0x2e, 0x3e,
	0xd9, 0x2f, 0xda, 0xbd, 0xe8, 0x85, 0xed, 0xbd, 0x2b, 0x9d, 0x0d, 0xbe,
	0x3a, 0x1b, 0x4f, 0xbc, 0x52, 0x6e, 0xd5, 0x3d, 0x7c, 0xe1, 0x93, 0xbd,
	0xbc, 0xdf, 0x2e, 0x3d, 0xeb, 0xb3, 0xa9, 0x3d, 0x46, 0x0f, 0x8b, 0x3c,
	0x2c, 0xf9, 0x83, 0x3e, 0x2f, 0x39, 0xe2, 0xbd, 0xff, 0x1a, 0x12, 0xbe,
	0x9e, 0x85, 0xb4, 0x3d, 0xdc, 0x07, 0x6c, 0x3e, 0xc0, 0x1c, 0x25, 0xbd,
	0xcc, 0xbe, 0x99, 0xbd, 0x0e, 0xad, 0xa1, 0xbe, 0x39, 0xc6, 0xb6, 0xbc,
	0xa7, 0xcc, 0x13, 0xbe, 0x9d, 0x87, 0x94, 0xbd, 0x5f, 0x2a, 0x22, 0xbe,
	0x8b, 0x5a, 0x21, 0xbe, 0x05, 0xea, 0x87, 0xbd, 0x0f, 0x4c, 0xb5, 0x3e,
	0xf8, 0x12, 0xe1, 0x3b, 0x51, 0xd0, 0x1a, 0x3d, 0x72, 0x87, 0x8f, 0xbe,
	0x87, 0x05, 0x99, 0x3c, 0xb4, 0x4c, 0xa9, 0x3c, 0x7b, 0xc8, 0x8c, 0x3d,
	0x10, 0x80, 0x4e, 0x3e, 0x30, 0x2b, 0xc5, 0x3d, 0x5b, 0xab, 0xf1, 0xbd,
	0x47, 0x78, 0xf6, 0x3d, 0xe8, 0x6d, 0x8d, 0xbc, 0xa4, 0x91, 0x4f, 0x3d,
	0x8c, 0xa4, 0xdf, 0x3d, 0x5f, 0x59, 0x2e, 0xbd, 0x17, 0xed, 0xe6, 0xbc,
	0xc8, 0x63, 0x63, 0x3e, 0x4a, 0x53, 0x05, 0x3e, 0x09, 0x12, 0x58, 0xbd,
	0xc4, 0x40, 0xff, 0x3d, 0x86, 0xc2, 0xb0, 0x3d, 0x49, 0xfe, 0x4a, 0x3d,
	0x1e, 0xbb, 0x46, 0x3e, 0x2c, 0x71, 0xa7, 0xbe, 0x55, 0x3d, 0x52, 0xbe,
	0x40, 0xfc, 0x73, 0xbe, 0x0a, 0xc7, 0x8d, 0xbe, 0x17, 0xa8, 0x79, 0x3d,
	0x67, 0xc2, 0x47, 0x3e, 0x2d, 0x20, 0xa3, 0x3d, 0x83, 0x6e, 0x17, 0xbe,
	0x0d, 0x9f, 0x4e, 0xbe, 0x2f, 0xff, 0xa0, 0xbd, 0x05, 0x0f, 0xad, 0xbc,
	0xd2, 0x53, 0x1f, 0x3f, 0x44, 0x0a, 0x03, 0xbe, 0x10, 0x45, 0xba, 0xbd,
	0x3e, 0x1f, 0xd8, 0xbd, 0xab, 0xcd, 0x94, 0x3e, 0x79, 0xf3, 0x65, 0xbd,
	0x5e, 0x2d, 0x6d, 0x3d, 0x0f, 0xb7, 0xa9, 0xbd, 0x23, 0xd7, 0x9e, 0x3c,
	0x04, 0xe7, 0xad, 0x3e, 0x9f, 0x13, 0x2a, 0xbd, 0xf3, 0x18, 0x33, 0xbe,
	0x5f, 0x3d, 0x07, 0x3e, 0x7e, 0xb4, 0x6e, 0xbc, 0x6b, 0x23, 0xf1, 0xbd,
	0xf1, 0x75, 0x8c, 0x3d, 0xd6, 0xc8, 0x2e, 0xbd, 0xc2, 0x29, 0x11, 0x3e,
	0x55, 0x6b, 0x82, 0x3d, 0x70, 0x1c, 0x45, 0xbe, 0xc6, 0x44, 0xe8, 0xbd,
	0x6b, 0x46, 0x46, 0xbc, 0xd5, 0x8e, 0xdb, 0x3d, 0x12, 0x8f, 0x9a, 0x3e,
	0x71, 0xa1, 0xff, 0xbd, 0x76, 0xbb, 0x16, 0xbd, 0x73, 0x09, 0x96, 0x3e,
	0x00, 0x49, 0x86, 0xbe, 0x16, 0xa8, 0x5b, 0xbd, 0x9d, 0x09, 0xae, 0xbd,
	0xda, 0xdf, 0xf8, 0x3d, 0xf2, 0x8d, 0x00, 0xbc, 0x07, 0x8a, 0x97, 0xbe,
	0xf8, 0x2a, 0xa7, 0x3d, 0x03, 0xc7, 0xc4, 0x3e, 0x82, 0xcd, 0xb3, 0x3d,
	0x27, 0x59, 0x86, 0x3d, 0xd0, 0xd0, 0x16, 0x3e, 0xf7, 0x58, 0x00, 0x3e,
	0xc9, 0xc7, 0x63, 0xbd, 0x43, 0xd7, 0x80, 0x3e, 0x2e, 0x1c, 0xc9, 0xba,
	0xad, 0x9e, 0x38, 0xbe, 0x0d, 0x98, 0x28, 0xbe, 0xc3, 0xc0, 0xf0, 0xbd,
	0x04, 0x3b, 0xed, 0xbd, 0xcb, 0x52, 0xdb, 0xbd, 0x7b, 0x2c, 0x2a, 0x3e,
	0x19, 0xda, 0xb5, 0x3d, 0x01, 0xbc, 0xea, 0x3d, 0x25, 0x3f, 0x46, 0xbe,
	0x1a, 0x0f, 0x1b, 0xbe, 0xfa, 0x54, 0x65, 0x3d, 0xb6, 0x33, 0x0b, 0x3e,
	0x0e, 0x47, 0xfd, 0xbc, 0x9d, 0xdf, 0x4a, 0xbc, 0x80, 0xb6, 0xa8, 0x3d,
	0x1b, 0x70, 0x85, 0x3d, 0xb6, 0x9a, 0x74, 0xbd, 0xb0, 0xb4, 0x18, 0xbe,
	0xf8, 0x02, 0x04, 0x3e, 0xe2, 0x0b, 0x7a, 0x3e, 0x94, 0x9e, 0x2b, 0xbe,
	0x66, 0xd6, 0xb6, 0x3d, 0x64, 0x61, 0x12, 0x3d, 0xd9, 0xec, 0xb6, 0xbd,
	0x2f, 0x50, 0x3c, 0xbb, 0xba, 0x49, 0x09, 0xbe, 0x97, 0x7a, 0x6c, 0xbe,
	0x06, 0xfc, 0x1f, 0x3d, 0x1b, 0x43, 0x2b, 0xbe, 0xf6, 0xe8, 0x36, 0x3e,
	0xe5, 0x33, 0xc1, 0xbd, 0xb6, 0xd1, 0x99, 0xbc, 0xae, 0x53, 0x0c, 0x3e,
	0x9a, 0xff, 0xa4, 0xbe, 0x6c, 0xd5, 0x5e, 0x3e, 0x1a, 0xfa, 0xa9, 0x3e,
	0xad, 0x84, 0xf3, 0xbe, 0xc7, 0x24, 0xe5, 0x3e, 0x5a, 0xa1, 0x9d, 0xbe,
	0xc5, 0x5b, 0x1c, 0xbe, 0x41, 0x8d, 0x3a, 0x3e, 0xd3, 0xfc, 0xb5, 0xbd,
	0xe3, 0x06, 0x29, 0x3e, 0x92, 0x27, 0x2a, 0x3d, 0x41, 0x07, 0x3b, 0x3e,
	0xae, 0xce, 0x3b, 0x3b, 0xbf, 0xfc, 0x9b, 0xbe, 0x49, 0x8f, 0x1a, 0x3e,
	0xe6, 0x92, 0x8a, 0xbd, 0x92, 0xc6, 0x2a, 0xbe, 0xb5, 0xfa, 0x0c, 0xbe,
	0x3a, 0x31, 0xb2, 0x3d, 0x9d, 0xa6, 0x25, 0xbd, 0x2f, 0x7d, 0x17, 0xbd,
	0x46, 0x44, 0x39, 0xbe, 0x0d, 0x25, 0x28, 0x3d, 0x98, 0x92, 0xfe, 0x3d,
	0xb9, 0xa7, 0x2d, 0xbd, 0x6e, 0x7c, 0x82, 0xbd, 0x5d, 0xe3, 0x0a, 0xbe,
	0xbc, 0x79, 0xb8, 0x3d, 0x9e, 0x68, 0x13, 0x3e, 0xa3, 0xa1, 0x49, 0x3e,
	0x8b, 0x8e, 0xf8, 0xbc, 0x26, 0x1f, 0x3b, 0x3d, 0xc5, 0xb3, 0x86, 0x3d,
	0xbf, 0x7f, 0x41, 0xbd, 0x51, 0x84, 0xb6, 0x3d, 0xc6, 0x47, 0x25, 0x3d,
	0x4d, 0x1d, 0x56, 0xbd, 0x5c, 0x84, 0x1f, 0xbe, 0x4c, 0xe7, 0x44, 0x3e,
	0x86, 0xae, 0x0a, 0x3e, 0x4c, 0x81, 0x40, 0xbc, 0x4c, 0x46, 0x81, 0x3d,
	0x16, 0x65, 0xe1, 0xbc, 0x26, 0x4e, 0xa1, 0x3c, 0x22, 0x4a, 0x9c, 0xbd,
	0x2d, 0x4c, 0x27, 0x3d, 0xd8, 0xce, 0x09, 0xbd, 0x22, 0x76, 0x8f, 0xbd,
	0x8d, 0x46, 0x4c, 0xbd, 0xef, 0xf5, 0x16, 0xbe, 0x9a, 0xc8, 0x4e, 0x3d,
	0xc8, 0xe5, 0x77, 0xbc, 0x15, 0x8e, 0xdd, 0x3d, 0xa7, 0x2c, 0xcb, 0x3d,
	0x64, 0xdf, 0x0b, 0xbe, 0x56, 0xf2, 0x25, 0xbd, 0xaa, 0x3b, 0xba, 0xbd,
	0x1d, 0x59, 0x71, 0x3e, 0x9a, 0xf4, 0x84, 0xbe, 0xeb, 0xd0, 0x35, 0xbd,
	0x26, 0x2f, 0xec, 0x3c, 0x16, 0x03, 0x54, 0x3d, 0xaf, 0xe3, 0x7e, 0x3b,
	0x28, 0xab, 0x20, 0x3e, 0x7e, 0x71, 0xcf, 0x3d, 0x5f, 0x65, 0x54, 0xbe,
	0x06, 0x94, 0xc0, 0xbd, 0x49, 0x85, 0x82, 0x3e, 0x6d, 0x3b, 0x1b, 0xbe,
	0x9e, 0x94, 0xc1, 0xbe, 0xeb, 0x21, 0x19, 0x3e, 0xc7, 0xa8, 0xd2, 0x3d,
	0xed, 0x58, 0x5f, 0xbe, 0x3b, 0xde, 0x65, 0xba, 0xc8, 0x0e, 0xee, 0xbd,
	0xe8, 0x14, 0xba, 0x3d, 0x1b, 0x26, 0x08, 0x3f, 0x5a, 0x42, 0x3d, 0x3e,
	0x62, 0x5d, 0x1e, 0x3e, 0x02, 0xb2, 0x9d, 0xbd, 0x89, 0x0f, 0x9b, 0x3d,
	0x9b, 0xb3, 0x75, 0x3e, 0x99, 0x3d, 0xe7, 0xbe, 0x79, 0x3c, 0x06, 0x3b,
	0x8a, 0xd5, 0xcb, 0xbe, 0x18, 0xcc, 0x05, 0xbe, 0xe7, 0xb6, 0xcc, 0xbc,
	0x44, 0x44, 0x8d, 0x3d, 0xf1, 0x5d, 0x2a, 0xbd, 0x45, 0x7b, 0x86, 0x3d,
	0x3a, 0xf8, 0x81, 0xbd, 0xf7, 0xb7, 0x3f, 0x3d, 0x88, 0xae, 0x4d, 0xbc,
	0x9c, 0x18, 0xed, 0xbd, 0xaa, 0xca, 0x6e, 0xbe, 0xfd, 0xb8, 0x8d, 0xbe,
	0xbb, 0x53, 0x5f, 0xbc, 0x92, 0xb6, 0x95, 0xbe, 0x14, 0xdd, 0xcd, 0xbe,
	0xf0, 0xdf, 0xbb, 0xbe, 0xbe, 0x41, 0xac, 0x3e, 0xd8, 0x4e, 0x4e, 0xbd,
	0xbe, 0x24, 0x2b, 0xbd, 0x86, 0x1a, 0x85, 0xbe, 0x63, 0x7e, 0x99, 0x3e,
	0xe6, 0x43, 0xe0, 0x3e, 0x36, 0x7a, 0x74, 0x3d, 0x65, 0x84, 0x01, 0xbc,
	0x75, 0x50, 0xc3, 0xbe, 0x01, 0x52, 0x60, 0xbe, 0x59, 0xe7, 0x80, 0x3e,
	0x7e, 0xdd, 0x31, 0x3e, 0xb1, 0xae, 0x32, 0xbe, 0xa1, 0x66, 0x1e, 0xbe,
	0xef, 0x2b, 0x39, 0x3e, 0xde, 0x2a, 0xb7, 0x3e, 0x86, 0x67, 0x33, 0xbd,
	0xa2, 0x2f, 0xbe, 0x3e, 0x02, 0xb3, 0xe7, 0xbe, 0xfd, 0xc6, 0x3f, 0x3e,
	0x7f, 0x3c, 0x57, 0xbc, 0xb9, 0x6c, 0x12, 0xbe, 0x64, 0x50, 0x13, 0xbf,
	0x27, 0x54, 0x04, 0xbe, 0x59, 0x75, 0x31, 0x3e, 0x1b, 0xec, 0xc3, 0x3e,
	0x7c, 0x07, 0x1d, 0x3e, 0xcf, 0x4c, 0x23, 0xbe, 0x6d, 0xf3, 0x17, 0x3d,
	0x14, 0x15, 0x8e, 0xbc, 0x76, 0x63, 0x0d, 0xbd, 0xca, 0x07, 0x33, 0xbe,
	0x2f, 0x3d, 0xdf, 0x3d, 0x20, 0x98, 0x99, 0x3d, 0x1e, 0xde, 0x1b, 0x3e,
	0xd3, 0x02, 0x29, 0xbd, 0x1c, 0xce, 0x8a, 0x3d, 0x8b, 0xbe, 0x1e, 0xbe,
	0xaf, 0x78, 0x27, 0x3e, 0x9d, 0x52, 0x69, 0x3e, 0x8b, 0xe4, 0x3f, 0x3d,
	0xd4, 0x5a, 0xf4, 0xbc, 0x1c, 0xfd, 0xd4, 0x3d, 0x3e, 0x3c, 0x42, 0xbe,
	0xd2, 0xf6, 0x0a, 0x3e, 0x40, 0xc8, 0xb8, 0xbd, 0x1e, 0xcc, 0x86, 0x3e,
	0x71, 0xbc, 0x91, 0xbe, 0x8f, 0xe9, 0x25, 0x3f, 0xe8, 0x6a, 0x0b, 0xbe,
	0x4f, 0x4d, 0x84, 0x3d, 0xd9, 0x8c, 0xf6, 0x3c, 0x9a, 0xda, 0x8d, 0x3e,
	0x11, 0x57, 0x63, 0xbe, 0x24, 0xe8, 0x24, 0x3e, 0x6f, 0x95, 0x75, 0xbe,
	0x21, 0xcb, 0x65, 0xbe, 0x65, 0xae, 0x69, 0xbc, 0x21, 0x13, 0xe9, 0x3e,
	0x1f, 0x17, 0x6a, 0xbc, 0xde, 0xc6, 0x49, 0xbe, 0x1f, 0x43, 0x8c, 0xbe,
	0x16, 0x7b, 0x35, 0x3e, 0x09, 0xe9, 0x93, 0x3d, 0xc0, 0xaf, 0xf4, 0xbd,
	0xb2, 0x42, 0x93, 0xbd, 0xbd, 0x50, 0xdf, 0x3d, 0x4b, 0x60, 0x33, 0xbe,
	0xcc, 0x59, 0xb6, 0xbd, 0x3d, 0xd2, 0x2f, 0x3e, 0x0a, 0xf4, 0x73, 0xbd,
	0x9b, 0x85, 0xe9, 0x3d, 0x98, 0x2f, 0x29, 0x3e, 0x99, 0x05, 0xb4, 0xbe,
	0x20, 0x3c, 0x0d, 0xbd, 0x0f, 0x70, 0xf0, 0xbd, 0xfe, 0x5b, 0x09, 0xbe,
	0x68, 0xf5, 0x23, 0xbe, 0x17, 0x3a, 0x87, 0x3e, 0x8d, 0x30, 0xdf, 0x3d,
	0xf2, 0x24, 0xb7, 0xbd, 0x9c, 0x6b, 0x31, 0xbe, 0x35, 0x8b, 0x5e, 0xbd,
	0x2f, 0x8e, 0x3b, 0x3d, 0xcf, 0x47, 0xa7, 0x3d, 0xc1, 0x4f, 0xae, 0x3d,
	0x94, 0x46, 0xa4, 0x3d, 0x81, 0x8d, 0x77, 0xbe, 0x02, 0x98, 0xbe, 0x3e,
	0x06, 0xbc, 0xce, 0xbd, 0x55, 0x71, 0x20, 0xbe, 0xaa, 0x8a, 0x50, 0x3d,
	0x83, 0x92, 0x4c, 0x3e, 0xf1, 0xc4, 0x7a, 0xbe, 0xdf, 0x0e, 0x0a, 0x3e,
	0x3c, 0xc9, 0x0f, 0x3b, 0x35, 0x54, 0xff, 0xbc, 0x64, 0x8a, 0xf8, 0x3d,
	0xe8, 0xee, 0x01, 0xbe, 0x8a, 0x21, 0x42, 0xbe, 0x91, 0xac, 0x2a, 0x3e,
	0xa3, 0x9f, 0xf9, 0x3c, 0x2b, 0xc4, 0x1e, 0x3e, 0xc8, 0x02, 0x58, 0xbd,
	0x45, 0x37, 0xd7, 0x3c, 0x99, 0xea, 0x68, 0xbe, 0x1b, 0x99, 0x09, 0xbe,
	0xfd, 0x84, 0x9c, 0x3e, 0x2c, 0x6b, 0xbe, 0xbd, 0x15, 0x31, 0x3d, 0xbe,
	0x8c, 0x93, 0xcc, 0x3e, 0xfc, 0x81, 0x62, 0xbe, 0x77, 0x4b, 0x30, 0x3e,
	0xc6, 0xc5, 0xf2, 0xbc, 0x2f, 0x38, 0xe1, 0x3d, 0x7a, 0xf1, 0xb8, 0xbd,
	0xfc, 0xc6, 0x61, 0xbb, 0x69, 0x03, 0x18, 0x3e, 0x96, 0x51, 0x53, 0x3d,
	0x04, 0x1c, 0x2f, 0x3e, 0x59, 0x0b, 0xa7, 0x3c, 0xe8, 0x27, 0x8c, 0xbe,
	0xf6, 0x3c, 0x67, 0xbe, 0xfc, 0x78, 0x14, 0xbe, 0x82, 0xd7, 0x4d, 0xbd,
	0x6b, 0xc1, 0x83, 0x3e, 0x6e, 0x37, 0x37, 0x3e, 0x4d, 0x30, 0xd5, 0xbe,
	0x98, 0x70, 0xc2, 0x3c, 0x0e, 0xc2, 0x30, 0xbe, 0x2a, 0x9f, 0x02, 0xbf,
	0x83, 0xcc, 0xfc, 0x3d, 0x5b, 0xa1, 0x9c, 0xbe, 0x68, 0xf7, 0x18, 0x3d,
	0xbe, 0x42, 0x45, 0x3e, 0x05, 0x02, 0xf2, 0x3e, 0x51, 0xb4, 0xde, 0xbd,
	0xdc, 0xf6, 0xc7, 0x3b, 0xe2, 0x4a, 0x3e, 0xbd, 0x62, 0x5d, 0xf9, 0xbe,
	0x80, 0x29, 0x25, 0x3d, 0x87, 0x6c, 0xad, 0x3d, 0x37, 0x85, 0x03, 0x3f,
	0xaa, 0x45, 0x86, 0xbd, 0x6e, 0xea, 0x19, 0x3e, 0x77, 0x8d, 0x24, 0xbd,
	0x44, 0x34, 0x5d, 0xbe, 0x58, 0xc7, 0x7a, 0x3e, 0xf3, 0x42, 0x0a, 0xbe,
	0xb4, 0x55, 0xd6, 0x3d, 0xe6, 0x20, 0x38, 0x3f, 0xec, 0x33, 0x02, 0xbe,
	0x91, 0x2b, 0x87, 0xbe, 0xe6, 0x5a, 0xfb, 0x3d, 0x75, 0x28, 0x66, 0x3b,
	0xf4, 0x45, 0x1f, 0xbf, 0xcc, 0xca, 0x82, 0x3d, 0x4e, 0xd1, 0xf0, 0x3c,
	0x11, 0x0e, 0xac, 0x3e, 0xf2, 0x8a, 0xf1, 0xbc, 0x26, 0x48, 0xdf, 0x3d,
	0xb8, 0xca, 0xe7, 0x3d, 0x60, 0x33, 0x4f, 0xbe, 0x62, 0xd3, 0x78, 0x3e,
	0x80, 0x69, 0xdf, 0x3d, 0x9a, 0x7a, 0xa5, 0xbe, 0xc5, 0x54, 0x11, 0xbe,
	0x68, 0xff, 0x83, 0xbd, 0xd7, 0xbb, 0x4c, 0x3e, 0x72, 0xf8, 0x08, 0x3d,
	0x5c, 0xfe, 0x41, 0xbc, 0x6b, 0xcf, 0xbd, 0x3c, 0x42, 0x18, 0x05, 0x3d,
	0x3a, 0x1f, 0xcb, 0x3d, 0x2e, 0xe1, 0x0f, 0x3c, 0xef, 0x6b, 0xd9, 0xbe,
	0xed, 0x04, 0x03, 0x3e, 0x3f, 0x57, 0xb1, 0x3e, 0x62, 0x8e, 0x92, 0xbe,
	0x0c, 0x74, 0x89, 0x3e, 0xf9, 0xac, 0x56, 0x3e, 0xd3, 0xe9, 0x43, 0xbe,
	0x5b, 0x3e, 0xa9, 0x3e, 0x5f, 0x64, 0x9b, 0xbe, 0x8a, 0xfc, 0x29, 0xbb,
	0xa4, 0x24, 0x00, 0xbe, 0xc3, 0x55, 0x73, 0x3e, 0x93, 0xb6, 0x7b, 0x3e,
	0x73, 0x1d, 0x4d, 0x3e, 0x05, 0x14, 0xe6, 0xbd, 0xb3, 0x47, 0x81, 0xbe,
	0x36, 0x35, 0xe8, 0xbd, 0xd1, 0x40, 0xa8, 0xbe, 0x42, 0x41, 0x5a, 0xbe,
	0x77, 0x33, 0x9a, 0xbd, 0xe8, 0x51, 0xc5, 0x3e, 0x79, 0x69, 0x72, 0xbe,
	0x52, 0xea, 0xd3, 0x3e, 0x4e, 0xb2, 0xf2, 0xbd, 0x67, 0xe9, 0x25, 0x3d,
	0x61, 0x5b, 0x70, 0x3d, 0x88, 0x57, 0xdb, 0x3e, 0xae, 0x3e, 0xaa, 0xbe,
	0xe2, 0xad, 0x98, 0xbc, 0xec, 0x69, 0x99, 0xbe, 0x7e, 0x22, 0xb8, 0xbd,
	0x03, 0xc4, 0xd4, 0xbd, 0x60, 0x2e, 0x51, 0x3b, 0x4e, 0xb9, 0x00, 0xbe,
	0xa0, 0xe8, 0x1c, 0xbd, 0xc7, 0x7b, 0xd1, 0xbe, 0x48, 0x67, 0xbe, 0x3c,
	0xc3, 0x33, 0x37, 0xbe, 0x10, 0x9a, 0xa4, 0x3e, 0xff, 0xb1, 0x82, 0xbe,
	0x4c, 0x4b, 0xe3, 0x3d, 0xde, 0x43, 0xcd, 0x3d, 0xec, 0x7c, 0x03, 0x3e,
	0x3e, 0x76, 0x4a, 0x3b, 0x40, 0x76, 0x03, 0x3e, 0x54, 0x02, 0xd3, 0xbd,
	0xf2, 0x46, 0x6b, 0x3e, 0x04, 0xed, 0x9f, 0xbe, 0x15, 0xe9, 0x15, 0x3e,
	0x00, 0x31, 0x54, 0x3d, 0xd9, 0x6b, 0x39, 0x3e, 0x70, 0x27, 0x9c, 0xbd,
	0x8e, 0x14, 0x83, 0x3c, 0xb9, 0x28, 0x79, 0xbe, 0xe8, 0x7c, 0x9b, 0x3e,
	0x3f, 0x2d, 0xda, 0xbe, 0x10, 0x84, 0x8b, 0x3e, 0x91, 0x22, 0x1c, 0x3d,
	0xa6, 0x46, 0x81, 0x3c, 0xb2, 0x6b, 0xa1, 0x3e, 0x62, 0x81, 0xae, 0xbc,
	0x10, 0xd3, 0x48, 0x3d, 0x06, 0xca, 0x56, 0xbc, 0x39, 0x5d, 0x8d, 0x3d,
	0xd3, 0xb5, 0xc4, 0x3b, 0x8f, 0xea, 0x3a, 0xbe, 0xca, 0xcf, 0xb7, 0x3d,
	0x3b, 0x84, 0xec, 0x3c, 0x13, 0x04, 0x19, 0xbd, 0x31, 0x5f, 0xfb, 0x3d,
	0x84, 0xca, 0x7e, 0x3d, 0x27, 0xe8, 0xdf, 0x3d, 0xb4, 0x67, 0xba, 0xbd,
	0x08, 0xb9, 0x2d, 0x3e, 0x77, 0x62, 0xa5, 0xbe, 0x4a, 0xd9, 0x10, 0xbe,
	0xe2, 0xd1, 0x83, 0x3e, 0xe3, 0xa7, 0xff, 0x3d, 0x83, 0xfb, 0x5b, 0xbd,
	0xf5, 0x0b, 0xde, 0x3b, 0x4a, 0x3b, 0xee, 0x3c, 0x11, 0x6e, 0x08, 0xbc,
	0xe2, 0xcb, 0x3b, 0x3e, 0x5b, 0x04, 0x4f, 0x3c, 0x04, 0xe2, 0x73, 0xbd,
	0x5f, 0xda, 0xe7, 0x3b, 0x08, 0x46, 0x25, 0x3e, 0x36, 0xa7, 0x53, 0x3d,
	0x3f, 0xa9, 0x07, 0xbd, 0x7a, 0x4f, 0x16, 0xbe, 0x65, 0x30, 0x2b, 0xbd,
	0xbb, 0x5c, 0xc7, 0x3c, 0x78, 0x24, 0x25, 0xbd, 0xd6, 0x6c, 0x93, 0xbd,
	0x12, 0x69, 0x7e, 0xbd, 0x75, 0xe4, 0xca, 0xbd, 0x06, 0xf0, 0x9e, 0xbd,
	0x8e, 0xff, 0xff, 0x3d, 0x5c, 0x52, 0x69, 0x3d, 0x05, 0xa5, 0xb3, 0x3d,
	0x5f, 0x68, 0x04, 0x3e, 0x52, 0x49, 0x44, 0xbb, 0x38, 0xc8, 0xd0, 0xbd,
	0x51, 0x8c, 0x2f, 0x3b, 0x40, 0xa2, 0x8f, 0xbd, 0x61, 0xb7, 0xc3, 0x3d,
	0x27, 0x76, 0x20, 0x3e, 0x45, 0xeb, 0xd4, 0x3d, 0x15, 0x28, 0x13, 0x3e,
	0x02, 0x51, 0x4b, 0xbe, 0x05, 0x76, 0x4d, 0x3e, 0xf7, 0xa6, 0x7e, 0xbe,
	0xb1, 0x8e, 0x91, 0x3c, 0x38, 0x68, 0xdb, 0x3d, 0x1c, 0x61, 0xfc, 0x3e,
	0x24, 0x82, 0x89, 0xbe, 0x6a, 0x44, 0xf8, 0xbd, 0xdf, 0x0b, 0x02, 0xbe,
	0xa0, 0x55, 0x57, 0x3d, 0xa8, 0xee, 0x89, 0xbe, 0xf3, 0x45, 0xdc, 0xbd,
	0x0e, 0x59, 0x4a, 0x3e, 0x5c, 0x78, 0x55, 0x3e, 0xeb, 0xf7, 0x40, 0x3e,
	0xfd, 0x99, 0xeb, 0xbd, 0x28, 0x4f, 0x9c, 0xbe, 0x97, 0x43, 0xef, 0xbd,
	0x7d, 0x14, 0xb2, 0xbe, 0x57, 0x4e, 0x05, 0x3f, 0x7e, 0x49, 0xf1, 0xbe,
	0x19, 0x70, 0x6e, 0xbe, 0xd6, 0x56, 0x1e, 0x3e, 0xa5, 0x15, 0x83, 0x3e,
	0xef, 0x3c, 0x39, 0x3e, 0xb1, 0xc4, 0xb2, 0xbe, 0x6f, 0x83, 0xaa, 0xbd,
	0xe3, 0x17, 0xa8, 0xbd, 0x48, 0x71, 0x4f, 0x3e, 0xd9, 0x3f, 0x2f, 0x3e,
	0xde, 0xae, 0x34, 0xbe, 0xee, 0xeb, 0x31, 0xbe, 0x86, 0x69, 0x8a, 0x3e,
	0xe3, 0xd5, 0xa5, 0xbd, 0xf6, 0xf6, 0x91, 0x3d, 0xb5, 0xef, 0xe6, 0xbe,
	0x92, 0xf4, 0x8b, 0x3d, 0x9b, 0xf2, 0x7d, 0xbd, 0xa0, 0x0b, 0x89, 0x3e,
	0xfc, 0x51, 0x0e, 0xbd, 0x3d, 0xdd, 0x38, 0x3d, 0xd8, 0x1a, 0xe8, 0x3c,
	0x48, 0xd9, 0x5c, 0xbd, 0x1a, 0x59, 0x8b, 0x3e, 0x2e, 0x16, 0xf6, 0x3d,
	0x00, 0x79, 0x56, 0xbd, 0x89, 0xa3, 0x64, 0x3d, 0x26, 0xcf, 0x93, 0x3a,
	0x8e, 0x75, 0xc8, 0xbd, 0x8f, 0x24, 0xb7, 0x3d, 0xce, 0x30, 0x76, 0x3e,
	0xdf, 0xa7, 0x2a, 0xbe, 0xde, 0x6e, 0x27, 0xbe, 0x36, 0x45, 0x38, 0x3e,
	0x17, 0xac, 0x11, 0xbc, 0x38, 0xd6, 0xe7, 0xbc, 0x2c, 0xbb, 0x03, 0xbe,
	0x65, 0xdf, 0x1c, 0x3d, 0xad, 0x09, 0x03, 0xbc, 0xf0, 0x04, 0xd5, 0x3e,
	0x24, 0x59, 0x53, 0xbe, 0x6d, 0xb0, 0x03, 0xbe, 0xd6, 0x9a, 0x09, 0x3e,
	0xa1, 0x03, 0x06, 0xbb, 0x95, 0xba, 0x8e, 0xbe, 0x0c, 0x41, 0x94, 0xbe,
	0xf4, 0x3d, 0xfb, 0xbd, 0xd9, 0xbe, 0x12, 0xbe, 0xb7, 0x47, 0xf6, 0x3d,
	0x0f, 0xbe, 0xa4, 0xbc, 0x30, 0x1a, 0xf3, 0x3c, 0xf0, 0x17, 0x06, 0xbd,
	0x24, 0xdf, 0xae, 0x3d, 0xea, 0xc3, 0xbe, 0xbb, 0x41, 0xd2, 0x8d, 0x3e,
	0xb9, 0x4a, 0xbe, 0xbd, 0x63, 0xdd, 0x26, 0x3d, 0x65, 0xd9, 0x84, 0xbd,
	0x3b, 0xf0, 0x89, 0x3d, 0x5e, 0x8c, 0xd0, 0xbe, 0xe1, 0x07, 0x35, 0x3e,
	0xe7, 0x42, 0x4d, 0xbd, 0xd0, 0x14, 0xe3, 0xbe, 0xd1, 0x34, 0x08, 0x3e,
	0x8a, 0x58, 0x4d, 0xbb, 0x71, 0xab, 0x11, 0xbf, 0xcd, 0xda, 0xb4, 0x3e,
	0x72, 0xe2, 0x1c, 0xbe, 0xe1, 0x94, 0x93, 0x3d, 0x6d, 0xa2, 0xae, 0x3e,
	0x68, 0x5e, 0x80, 0xbc, 0xa5, 0xf3, 0x9b, 0x3c, 0x7f, 0x62, 0xe1, 0xbd,
	0x50, 0xc6, 0x0f, 0xbe, 0x0b, 0x45, 0xa8, 0x3d, 0x1f, 0x74, 0xa1, 0x3e,
	0xf9, 0xee, 0xa2, 0x3e, 0xb7, 0x0c, 0x14, 0xbb, 0xb9, 0x0a, 0x07, 0x3d,
	0x36, 0xc6, 0x96, 0xbd, 0x7d, 0x7a, 0x6d, 0xbe, 0x8b, 0xbd, 0xa9, 0x3d,
	0xbd, 0x37, 0xa9, 0x3e, 0x04, 0xb8, 0xef, 0xbd, 0x91, 0xfb, 0x0d, 0xbe,
	0xca, 0x78, 0xf0, 0x3d, 0x20, 0xe0, 0xf2, 0xbd, 0x19, 0xdb, 0x79, 0x3e,
	0xca, 0x72, 0x2b, 0x3c, 0x9e, 0xf4, 0x26, 0xbe, 0x86, 0x8c, 0xcb, 0xbd,
	0x59, 0x03, 0xd1, 0xbd, 0x75, 0xb1, 0x11, 0xbd, 0x22, 0xd4, 0x4b, 0xbe,
	0x8b, 0x5c, 0x3d, 0x3e, 0x02, 0xcf, 0x2b, 0x3a, 0x57, 0xe8, 0x34, 0xbc,
	0xf3, 0x53, 0x3e, 0xbd, 0xe0, 0x17, 0x39, 0x3e, 0x70, 0x1b, 0x55, 0xbe,
	0xfe, 0x0e, 0x2f, 0xbc, 0xa6, 0x74, 0xe1, 0x3d, 0x0b, 0xe1, 0xa4, 0xbe,
	0x08, 0x84, 0x61, 0xbd, 0xce, 0xf2, 0x94, 0x3e, 0x30, 0x4b, 0x4d, 0x3e,
	0xaa, 0xbd, 0x97, 0xbe, 0x94, 0xf4, 0x93, 0xbd, 0xe5, 0x67, 0x44, 0x3e,
	0xe0, 0xbe, 0xf7, 0xbe, 0xcf, 0x46, 0x93, 0x3e, 0xd0, 0xec, 0x0f, 0x3e,
	0x6d, 0x25, 0x8f, 0x3e, 0x97, 0xa3, 0x15, 0xbd, 0x24, 0x8f, 0xa5, 0x3d,
	0xb3, 0x0e, 0x2f, 0xbe, 0xdd, 0xcb, 0xfe, 0xbd, 0x58, 0x6e, 0x8a, 0xbe,
	0x86, 0x23, 0xc7, 0x3e, 0xc0, 0x60, 0xb3, 0xbe, 0x85, 0x67, 0xcb, 0xbd,
	0x24, 0x2e, 0xd1, 0x3e, 0xa6, 0xe1, 0x27, 0x3e, 0x38, 0x82, 0x70, 0x3e,
	0x70, 0x9c, 0xa8, 0xbd, 0x8b, 0x12, 0x6f, 0xbe, 0xce, 0x9a, 0x76, 0x3e,
	0x2f, 0x07, 0x54, 0x3d, 0xff, 0xde, 0x88, 0x3e, 0x59, 0xf2, 0xcb, 0xbd,
	0x07, 0xad, 0x17, 0xbe, 0xa5, 0xeb, 0x22, 0xbe, 0x5e, 0x2c, 0x3c, 0x3d,
	0x3f, 0x1f, 0xf3, 0x3d, 0x74, 0x1f, 0x79, 0xbe, 0xcd, 0xb8, 0x0f, 0xbe,
	0xac, 0xa1, 0x54, 0x3e, 0xf6, 0xfb, 0x3c, 0xbe, 0xe9, 0x66, 0x22, 0x3e,
	0xc7, 0x2a, 0xff, 0x3d, 0xce, 0xd0, 0xd9, 0xbc, 0xba, 0x50, 0x4d, 0x3d,
	0x63, 0xbe, 0xa8, 0x3c, 0xaa, 0x29, 0x6d, 0x3d, 0xac, 0xd6, 0x83, 0xbd,
	0x45, 0x77, 0x7f, 0xbc, 0x58, 0x2c, 0x18, 0x3e, 0xf3, 0x63, 0xd6, 0xbd,
	0xdb, 0x77, 0x01, 0xbe, 0x26, 0x1b, 0x25, 0xbe, 0x24, 0x8a, 0xe5, 0x3c,
	0xa3, 0x28, 0x2e, 0xbe, 0x44, 0x9b, 0x21, 0x3e, 0xbe, 0xa4, 0xf6, 0x3d,
	0x59, 0xe0, 0x28, 0xbe, 0x61, 0xbf, 0xb9, 0x3e, 0x1c, 0x80, 0x88, 0xbe,
	0x92, 0x11, 0x11, 0xbe, 0x01, 0x46, 0xc3, 0x3d, 0x3b, 0xaa, 0x81, 0x3d,
	0xa6, 0xed, 0xd9, 0xbe, 0x6e, 0xee, 0xbe, 0xbd, 0x27, 0xb9, 0x8a, 0x3d,
	0x16, 0xa5, 0xd4, 0x3d, 0x25, 0x5c, 0xb5, 0x3e, 0x17, 0x5a, 0x29, 0x3c,
	0x4e, 0xa7, 0xa5, 0xbd, 0x61, 0x4a, 0x4f, 0xbd, 0x0a, 0xea, 0x4d, 0xbe,
	0xbc, 0xba, 0xae, 0x3c, 0xd2, 0x6c, 0x3c, 0x3e, 0x90, 0x64, 0x2d, 0xbe,
	0xfe, 0x7e, 0xb6, 0x3c, 0xae, 0xdf, 0xe0, 0xbd, 0xd2, 0x6f, 0x98, 0xbd,
	0x58, 0x36, 0x13, 0xbf, 0xa4, 0x20, 0xb5, 0x3e, 0xb3, 0x10, 0xf7, 0x3d,
	0x71, 0x68, 0x52, 0x3e, 0x34, 0xb0, 0x03, 0xbd, 0x99, 0x98, 0x07, 0x3e,
	0x71, 0x28, 0x72, 0xbe, 0xc5, 0x1c, 0xbe, 0xbd, 0xa6, 0x90, 0x04, 0xbe,
	0xaa, 0x18, 0xde, 0x3d, 0xec, 0x81, 0xf2, 0xbe, 0x20, 0x93, 0x40, 0xbd,
	0x0b, 0x32, 0x7b, 0xbe, 0x6e, 0xf3, 0xec, 0xbd, 0x99, 0xf7, 0x3b, 0xbe,
	0x24, 0xd3, 0x97, 0x3f, 0xbc, 0x50, 0x57, 0xbe, 0x95, 0x7c, 0x0c, 0xbe,
	0x21, 0x16, 0xad, 0xbd, 0xf0, 0x2e, 0xd0, 0x3e, 0xf9, 0xc0, 0x2c, 0x3e,
	0x60, 0x7b, 0xe9, 0x3d, 0x1c, 0xec, 0xfc, 0x3d, 0x1e, 0xe9, 0xb5, 0xbe,
	0xf8, 0x66, 0x44, 0x3e, 0x8c, 0x76, 0x3d, 0xbe, 0xb4, 0x4f, 0x86, 0x3d,
	0x0f, 0x10, 0x4d, 0x3e, 0x1c, 0x83, 0xa7, 0xbd, 0xa2, 0x56, 0x44, 0xbe,
	0xa3, 0x05, 0xad, 0xbd, 0xb0, 0xb7, 0xae, 0xbd, 0x0d, 0x50, 0xb6, 0xbb,
	0x30, 0x30, 0x56, 0xbe, 0xb9, 0x42, 0xaf, 0x3d, 0x40, 0xb0, 0x52, 0x3b,
	0x70, 0xf2, 0x16, 0x3d, 0x53, 0xd7, 0x1a, 0x3d, 0x73, 0xf5, 0xf8, 0xbd,
	0x6a, 0xfe, 0xd5, 0x3d, 0xca, 0x21, 0xc0, 0x3c, 0xd1, 0x5b, 0xe1, 0xbd,
	0x60, 0x61, 0x70, 0x3d, 0x89, 0x48, 0x63, 0xbd, 0x79, 0x20, 0x4e, 0xbb,
	0x50, 0x02, 0xc9, 0xbd, 0x93, 0x2b, 0x67, 0x3d, 0xaa, 0x51, 0xaa, 0xbd,
	0x84, 0xf1, 0x91, 0xbd, 0x8f, 0x04, 0xa9, 0xbe, 0x2e, 0xfa, 0x58, 0x3e,
	0x40, 0xe7, 0x0d, 0xbd, 0x1f, 0xfa, 0x43, 0x3e, 0x8b, 0x0b, 0x05, 0x3e,
	0x86, 0x92, 0xd9, 0x3d, 0xd8, 0x84, 0x72, 0xbe, 0x11, 0x2b, 0xde, 0x3d,
	0x86, 0x6b, 0x9f, 0xbe, 0xe4, 0xc3, 0x2d, 0x3e, 0x22, 0xc7, 0x9e, 0xbd,
	0x96, 0xb0, 0x02, 0x3f, 0x98, 0x25, 0xf1, 0x3d, 0x67, 0x70, 0x3b, 0x3e,
	0x43, 0xa1, 0x2f, 0xbe, 0xf8, 0x4c, 0x57, 0x3e, 0x45, 0xe8, 0x98, 0xbe,
	0x23, 0x9f, 0xc2, 0x3e, 0x4a, 0x7a, 0x54, 0xbc, 0xaf, 0x6a, 0x94, 0x3d,
	0x56, 0x2e, 0x89, 0xbe, 0xc6, 0xb1, 0x4e, 0x3e, 0xd2, 0x5b, 0x41, 0xbd,
	0xa1, 0x20, 0xfe, 0x3d, 0x4a, 0xfd, 0x87, 0xbd, 0x3e, 0xbe, 0x8a, 0x3d,
	0x49, 0x5b, 0x86, 0xbd, 0x6f, 0xf9, 0x65, 0x3d, 0x10, 0xb7, 0x08, 0xbd,
	0xa4, 0x2d, 0x3d, 0xbd, 0x73, 0xd0, 0xe4, 0xbd, 0x4e, 0x55, 0xbf, 0xbb,
	0x93, 0xc9, 0x42, 0x3c, 0xeb, 0xeb, 0xab, 0xbc, 0xfc, 0x42, 0x80, 0x3e,
	0x09, 0x87, 0xe0, 0xbd, 0x4e, 0xf4, 0x03, 0xbc, 0x63, 0xdb, 0x72, 0xbe,
	0xc9, 0xf5, 0x88, 0xbb, 0xba, 0xb9, 0x57, 0x3e, 0x1f, 0xf6, 0xd2, 0xbd,
	0x13, 0x69, 0xae, 0xbd, 0x7b, 0x39, 0x5f, 0xbd, 0x1a, 0x6c, 0x32, 0x3e,
	0x39, 0xe4, 0x86, 0x3e, 0xc2, 0xd2, 0x20, 0xbe, 0xea, 0xe9, 0x5b, 0xbc,
	0xcb, 0x77, 0x09, 0xbe, 0xeb, 0xfb, 0x8c, 0x3c, 0x01, 0x1c, 0xe1, 0x3d,
	0x58, 0x9a, 0xf9, 0x3d, 0xdf, 0xa7, 0x1d, 0xbe, 0xe0, 0x1e, 0xf4, 0x3d,
	0xea, 0x04, 0x24, 0x3d, 0x1b, 0xf9, 0x5a, 0x3e, 0x68, 0xa6, 0x36, 0xbe,
	0x9f, 0x25, 0xb2, 0x3d, 0x38, 0xf3, 0x7f, 0xbe, 0x06, 0x43, 0x6b, 0xbd,
	0xef, 0x12, 0x45, 0x3d, 0x2e, 0x33, 0xe8, 0xbc, 0xd9, 0x52, 0x13, 0x3d,
	0x3b, 0x4b, 0x5d, 0xbd, 0xf4, 0x5e, 0x23, 0x3d, 0x80, 0x51, 0x46, 0x3e,
	0xff, 0xcd, 0xb0, 0xbd, 0xe1, 0x48, 0xc3, 0x3d, 0x9a, 0x6f, 0xa5, 0xbd,
	0x7e, 0x5b, 0x01, 0x3e, 0xcc, 0x66, 0xdf, 0xbd, 0x6f, 0x47, 0x96, 0xbe,
	0x59, 0xb8, 0x90, 0xbd, 0x4a, 0xfb, 0xe1, 0xbd, 0xcf, 0x6a, 0xa6, 0x3e,
	0x08, 0x3c, 0xe0, 0x3d, 0xb4, 0x32, 0x2c, 0xbd, 0x1a, 0x12, 0x3d, 0x3e,
	0xcb, 0xfc, 0xb3, 0xbd, 0xbb, 0xf5, 0x51, 0xbd, 0x1c, 0xab, 0xbb, 0x3d,
	0x38, 0xc7, 0x95, 0xbd, 0x41, 0x6b, 0xdc, 0xbd, 0xec, 0xd6, 0x59, 0x3e,
	0x26, 0x93, 0x5e, 0x3e, 0x3b, 0xd6, 0xae, 0x3d, 0xbf, 0x76, 0x77, 0xbe,
	0x80, 0xe4, 0x7e, 0x3c, 0x5b, 0x73, 0x15, 0x3e, 0xff, 0x70, 0x81, 0x3e,
	0x1d, 0x3d, 0xba, 0xbd, 0xcc, 0xa5, 0x1a, 0x3e, 0xab, 0x41, 0x36, 0xbd,
	0x3d, 0xa9, 0x09, 0x3e, 0x01, 0xce, 0x02, 0xbe, 0x26, 0xa9, 0x48, 0xbe,
	0x34, 0x80, 0xa7, 0x3e, 0x42, 0xf0, 0xbd, 0xbe, 0xcb, 0xa8, 0xb8, 0xbe,
	0xf8, 0xd5, 0x27, 0x3e, 0x06, 0xbb, 0x4a, 0xbe, 0xf2, 0xf2, 0x5b, 0xbe,
	0xfa, 0x5c, 0x53, 0x3e, 0xb3, 0x76, 0x04, 0xbe, 0x8a, 0x0c, 0x45, 0xbd,
	0x69, 0x28, 0xf3, 0x3d, 0xe1, 0x06, 0x12, 0xbc, 0x8c, 0xc8, 0x89, 0x3d,
	0xe2, 0xa7, 0x6f, 0xbe, 0x6b, 0xee, 0x86, 0x3b, 0xd8, 0x73, 0xb2, 0xbe,
	0xe1, 0x87, 0x9d, 0xbe, 0xd1, 0x7e, 0x01, 0xbe, 0x0e, 0x8f, 0x8e, 0xbc,
	0xa3, 0x65, 0x2b, 0xbd, 0x6a, 0x29, 0xce, 0x3e, 0x55, 0x54, 0x35, 0xbe,
	0x55, 0x76, 0x87, 0x3e, 0x50, 0xcb, 0x35, 0x3e, 0xdf, 0xa7, 0x1a, 0x3d,
	0x9c, 0x62, 0x2f, 0xbd, 0x77, 0x57, 0x6d, 0xbe, 0x26, 0x72, 0x72, 0x3d,
	0xb1, 0xca, 0x1f, 0xbe, 0xe1, 0x10, 0x48, 0x3c, 0x5a, 0x72, 0xb7, 0x3d,
	0xec, 0xc9, 0x34, 0xbe, 0xe6, 0xc5, 0x61, 0x3d, 0xc6, 0xaa, 0x26, 0xbe,
	0xbe, 0x72, 0xb1, 0x3d, 0x28, 0x8a, 0xd0, 0x3e, 0x69, 0xb0, 0x97, 0xbe,
	0x86, 0xc8, 0x7f, 0xbe, 0x22, 0x1e, 0x15, 0x3e, 0xdd, 0x69, 0x04, 0x3e,
	0xdb, 0xe4, 0xd6, 0xbe, 0x80, 0x8e, 0x5f, 0x3d, 0xf4, 0x6c, 0x1d, 0xbe,
	0x88, 0x86, 0x66, 0x3e, 0x75, 0x56, 0xaa, 0x3d, 0x54, 0x4d, 0x26, 0xbe,
	0xf6, 0x3f, 0xb9, 0xbd, 0x41, 0x1a, 0x42, 0x3d, 0xd5, 0xe8, 0xfe, 0x3d,
	0xbd, 0x77, 0xb3, 0xbc, 0xa8, 0xde, 0xb9, 0xbd, 0xe1, 0x4f, 0x16, 0xbe,
	0x47, 0xcc, 0xca, 0xbd, 0xfa, 0x12, 0x3c, 0x3e, 0x29, 0x98, 0x99, 0x3d,
	0x3b, 0x8d, 0x7e, 0xbe, 0xa8, 0xc3, 0x8a, 0x3e, 0x57, 0xf1, 0x03, 0xbd,
	0x22, 0x74, 0x08, 0x3e, 0xc3, 0xb1, 0x77, 0xbd, 0x53, 0xbe, 0x9b, 0x3d,
	0x1d, 0xc9, 0x31, 0xbe, 0x1a, 0x16, 0x39, 0x3e, 0x40, 0x48, 0x9c, 0xbe,
	0x4c, 0xc4, 0xdc, 0x3d, 0x96, 0x65, 0xff, 0x3b, 0x39, 0x4f, 0xb2, 0x3d,
	0x5c, 0x84, 0x8f, 0xbe, 0x41, 0x53, 0x12, 0xbe, 0xd0, 0x4a, 0x03, 0xbf,
	0xab, 0xd8, 0x66, 0x3e, 0x34, 0x52, 0x01, 0x3e, 0xa3, 0x19, 0x8b, 0x3e,
	0x86, 0x3d, 0x2f, 0xbd, 0xe1, 0x5e, 0x3f, 0xbf, 0xc4, 0x51, 0x46, 0x3d,
	0x2a, 0x71, 0x2f, 0x3e, 0xfe, 0x65, 0x84, 0xbe, 0xdb, 0xce, 0x45, 0x3f,
	0x23, 0x27, 0xcc, 0xbe, 0x2f, 0xc3, 0xc3, 0xbe, 0x9f, 0x65, 0x14, 0x3f,
	0x13, 0xc4, 0x82, 0xbe, 0xd1, 0xf2, 0x35, 0x3f, 0xac, 0xa6, 0x80, 0xbe,
	0xc0, 0x9b, 0xa6, 0xbd, 0xd8, 0x2f, 0x02, 0x3e, 0xef, 0x94, 0x79, 0xbd,
	0xa2, 0xe7, 0x6e, 0x3e, 0x98, 0x06, 0xea, 0x3c, 0x19, 0x46, 0xc1, 0xbd,
	0x59, 0x5e, 0xeb, 0xbd, 0x8d, 0xa5, 0x09, 0x3d, 0x18, 0xb0, 0x43, 0x3e,
	0xda, 0xe8, 0x8d, 0xbd, 0xae, 0x68, 0x49, 0xbd, 0x86, 0x4f, 0x8c, 0xbd,
	0xfb, 0x47, 0x54, 0xbd, 0x35, 0x84, 0x34, 0xbe, 0x63, 0x19, 0x3e, 0xbe,
	0x55, 0x1b, 0xb5, 0xbd, 0xa4, 0xe5, 0x22, 0x3e, 0xc6, 0x6e, 0x17, 0x3d,
	0xd9, 0x06, 0xa9, 0x3d, 0xa9, 0x91, 0x36, 0x3d, 0xe2, 0x79, 0xd7, 0xbc,
	0x5b, 0xbd, 0x90, 0xbd, 0xbc, 0x80, 0xdd, 0x3d, 0x17, 0x1f, 0x06, 0x3c,
	0x79, 0x14, 0x30, 0xbe, 0xba, 0xa9, 0x24, 0x3e, 0xf4, 0xca, 0xa2, 0xbd,
	0x22, 0x3f, 0x56, 0x3d, 0x77, 0xaf, 0x69, 0x3e, 0xc6, 0x6c, 0x9c, 0xbe,
	0x53, 0xce, 0xdc, 0x3d, 0x35, 0xe7, 0x60, 0x3d, 0xdd, 0x3a, 0xd2, 0x3e,
	0x15, 0xc9, 0x51, 0x3c, 0x21, 0x64, 0x3d, 0xbe, 0x3f, 0x81, 0xce, 0x3d,
	0x28, 0xf7, 0xf3, 0x3c, 0xa1, 0x76, 0x64, 0xbe, 0xa4, 0x9c, 0xda, 0xbd,
	0xb5, 0xad, 0x92, 0xbe, 0xe7, 0xcc, 0x32, 0x3b, 0xd1, 0xad, 0x99, 0xbc,
	0xa9, 0x5f, 0xe4, 0x3c, 0x6c, 0x19, 0xe7, 0xbc, 0x3c, 0x43, 0x35, 0x3e,
	0x39, 0x2b, 0x95, 0xba, 0x87, 0x65, 0x2d, 0xbe, 0xe5, 0xf2, 0x3a, 0x3d,
	0x72, 0x41, 0x01, 0xbe, 0x6a, 0xce, 0xc6, 0xbd, 0x7b, 0xed, 0xda, 0xbd,
	0x9c, 0x77, 0x82, 0x3d, 0x74, 0x91, 0x49, 0xbd, 0x85, 0xbd, 0x08, 0xbe,
	0x07, 0xa4, 0x02, 0xbe, 0x80, 0x43, 0xc4, 0x3c, 0xd6, 0x41, 0xb2, 0x3c,
	0x4f, 0x85, 0x9f, 0x3d, 0xc5, 0x5e, 0x2a, 0xbe, 0x83, 0x56, 0x65, 0x3e,
	0x72, 0x58, 0x40, 0x3e, 0x7d, 0x43, 0xf8, 0xbd, 0x79, 0x17, 0x75, 0x3d,
	0xd1, 0x05, 0x01, 0xbe, 0x93, 0xfc, 0x6e, 0xbe, 0x78, 0xf6, 0x95, 0xbd,
	0x37, 0x53, 0x82, 0x3a, 0xb9, 0x0b, 0x79, 0xbc, 0xf7, 0x42, 0x4b, 0xbe,
	0xa4, 0xb9, 0x41, 0xbe, 0x5a, 0x75, 0x0b, 0x3e, 0xd8, 0xa6, 0x58, 0x3e,
	0xab, 0xba, 0xb4, 0xbc, 0x11, 0x9f, 0x89, 0xbc, 0x64, 0xf2, 0x0a, 0x3e,
	0xe9, 0x8f, 0xcd, 0x3d, 0xab, 0xd0, 0xe8, 0x3e, 0xd2, 0xa5, 0x27, 0xbe,
	0x1a, 0x5a, 0x6a, 0xbe, 0x52, 0x5c, 0x8f, 0x3c, 0x89, 0x84, 0x5a, 0xbe,
	0xe4, 0xb2, 0xc7, 0xbd, 0xf8, 0xd2, 0x4e, 0x3e, 0x44, 0xa2, 0x85, 0x3e,
	0xc4, 0x71, 0x5c, 0x3e, 0x69, 0xf3, 0x13, 0x3e, 0x37, 0xde, 0xaf, 0x3b,
	0xc1, 0x68, 0xfa, 0x3d, 0x4c, 0x8e, 0xfe, 0xbd, 0xbc, 0xf4, 0x82, 0x3c,
	0xb2, 0xd6, 0x02, 0xbe, 0x51, 0x3c, 0xae, 0x3d, 0xde, 0x4a, 0x65, 0xbe,
	0x9d, 0x47, 0xae, 0x3d, 0x33, 0x6b, 0x37, 0xbd, 0x98, 0xc5, 0x28, 0xbd,
	0x96, 0x21, 0x0c, 0xbc, 0x4a, 0x93, 0xdc, 0xbd, 0x8f, 0xef, 0xe9, 0xbd,
	0x03, 0xc8, 0x22, 0xbe, 0x90, 0x32, 0x64, 0x3e, 0x40, 0xab, 0xec, 0xbd,
	0x89, 0xf4, 0x30, 0xbe, 0x82, 0x56, 0x99, 0xbc, 0x3a, 0x83, 0x82, 0xbc,
	0x4e, 0x00, 0x4e, 0x3c, 0x16, 0x2b, 0xc8, 0x3c, 0x7a, 0xf9, 0x17, 0x3e,
	0x09, 0xb9, 0x2a, 0x3e, 0x92, 0x7d, 0x58, 0xbe, 0x13, 0xb8, 0x70, 0x3c,
	0xbb, 0x71, 0x46, 0xbe, 0x5e, 0x5d, 0x1c, 0xbe, 0x9d, 0xb8, 0x2e, 0x3e,
	0xdd, 0x05, 0x99, 0x3d, 0x76, 0xbf, 0xf3, 0xbd, 0x82, 0x33, 0xcb, 0xbd,
	0x67, 0x84, 0x15, 0x3d, 0x17, 0x43, 0x9f, 0x3e, 0x3c, 0x7f, 0xc4, 0xbd,
	0x9d, 0x08, 0xd1, 0xbd, 0x87, 0x12, 0xe6, 0x3e, 0xb1, 0x5c, 0x46, 0xbe,
	0xc0, 0x80, 0x74, 0x3e, 0x68, 0x2e, 0x04, 0xbe, 0xbf, 0x0b, 0xdc, 0x3c,
	0xe6, 0x62, 0x83, 0x3e, 0x37, 0x85, 0x4b, 0xbe, 0x90, 0xad, 0x03, 0xbe,
	0x6b, 0x13, 0x01, 0xbd, 0x33, 0xae, 0xd9, 0xbd, 0x56, 0x00, 0x1c, 0xbd,
	0x37, 0x4b, 0x03, 0x3d, 0x39, 0x6b, 0x7f, 0xbd, 0x31, 0x16, 0xa5, 0xbd,
	0x1c, 0x61, 0x08, 0x3e, 0x61, 0x76, 0xa9, 0x3d, 0x90, 0x54, 0xa8, 0x3d,
	0x8f, 0xd7, 0xfe, 0x3c, 0x48, 0x7f, 0x2f, 0x3c, 0xb2, 0x7b, 0xf7, 0x3c,
	0xba, 0x7e, 0xec, 0xbe, 0x88, 0x11, 0x3c, 0x3e, 0x20, 0x66, 0xb1, 0x3c,
	0xc3, 0xfb, 0xa3, 0xbd, 0xfb, 0x09, 0x8b, 0x3c, 0x8e, 0x48, 0x35, 0xbd,
	0x28, 0x4c, 0x9b, 0x3d, 0xa3, 0xbf, 0x0d, 0x3e, 0x10, 0xbf, 0x6f, 0x3e,
	0x4c, 0x5d, 0xa3, 0xbc, 0x93, 0xe2, 0x89, 0x3d, 0x71, 0xd5, 0x8e, 0xbd,
	0x92, 0x7a, 0x4e, 0x3d, 0xfd, 0xdb, 0x1b, 0x3d, 0x35, 0x33, 0xfa, 0xbd,
	0xbc, 0x8e, 0xb2, 0xbd, 0x73, 0x81, 0x82, 0xbd, 0xea, 0xd0, 0x2d, 0x3e,
	0x40, 0x2f, 0xe2, 0xbd, 0xe4, 0xd7, 0x71, 0x3d, 0x1a, 0x00, 0xeb, 0x3e,
	0x87, 0x6b, 0x13, 0xbe, 0xd1, 0xc4, 0x1b, 0x3e, 0xc9, 0x2a, 0x14, 0x3e,
	0xc6, 0x57, 0x9c, 0xbd, 0x64, 0x25, 0x9a, 0xbe, 0x00, 0x7e, 0x58, 0xbd,
	0xbc, 0x11, 0x6c, 0x3e, 0xd0, 0x94, 0x65, 0xbe, 0x4d, 0x44, 0xde, 0xbd,
	0x0b, 0xa9, 0x41, 0xbd, 0xc1, 0x4b, 0x0d, 0x3e, 0x4e, 0x32, 0x81, 0xbe,
	0x78, 0x97, 0x1d, 0x3e, 0x9c, 0x19, 0xa7, 0xbd, 0xee, 0xc9, 0x36, 0x3e,
	0xca, 0x99, 0x71, 0x3e, 0x63, 0x84, 0x38, 0xbe, 0x18, 0xd5, 0x66, 0x3d,
	0x66, 0x9d, 0x3a, 0x3e, 0x67, 0xb5, 0x78, 0xbd, 0xae, 0xc4, 0x10, 0x3d,
	0xc0, 0xb4, 0xab, 0xbd, 0x17, 0x02, 0x20, 0xbc, 0x19, 0xb9, 0xd8, 0xbd,
	0xe1, 0x26, 0xce, 0xbd, 0x14, 0x33, 0x97, 0x3d, 0x0b, 0x65, 0x26, 0x3e,
	0xdf, 0x71, 0x26, 0x3e, 0x05, 0xce, 0x94, 0x3d, 0x6b, 0xf0, 0x88, 0xbe,
	0xe9, 0x37, 0x89, 0x3d, 0x89, 0x55, 0x48, 0x3e, 0x5d, 0x23, 0x32, 0x3e,
	0xc1, 0x07, 0xaa, 0xbe, 0xe8, 0x7b, 0x59, 0xbe, 0xf9, 0x0b, 0xb0, 0x3c,
	0xce, 0xae, 0x25, 0xbd, 0x30, 0xae, 0xa9, 0x3d, 0x1d, 0x72, 0x4b, 0xbd,
	0xe7, 0x36, 0x2d, 0xbd, 0x5f, 0x97, 0x5b, 0xbd, 0xc8, 0x4f, 0x70, 0x3e,
	0xe4, 0x03, 0x8d, 0x3e, 0x7e, 0x48, 0x19, 0x3d, 0xcb, 0xa5, 0x73, 0x3e,
	0x01, 0x9d, 0x70, 0x3c, 0xd7, 0x9c, 0xd0, 0xbd, 0xde, 0x81, 0xad, 0x3d,
	0x8c, 0x87, 0x51, 0xbd, 0x87, 0xd3, 0xd0, 0x3c, 0xf2, 0xc5, 0xcc, 0xbe,
	0x3f, 0x15, 0xb0, 0x3e, 0x12, 0x29, 0x98, 0xbd, 0xa3, 0x35, 0xc9, 0x3d,
	0x37, 0xa9, 0x1d, 0x3e, 0xce, 0x41, 0x6b, 0xbe, 0xe6, 0xcf, 0x3d, 0x3e,
	0xc6, 0x9c, 0x62, 0x3d, 0xe4, 0x14, 0xe2, 0xbc, 0x53, 0xa6, 0xc0, 0xbd,
	0xf4, 0x59, 0xe2, 0xbd, 0xe5, 0x84, 0xaa, 0xbd, 0xad, 0x91, 0x29, 0x3e,
	0x78, 0x72, 0x45, 0x3e, 0xc3, 0xf0, 0x25, 0xbe, 0x51, 0xb8, 0x91, 0xbe,
	0x55, 0x73, 0x63, 0xbb, 0x76, 0xfc, 0xdf, 0xbd, 0x10, 0xe8, 0x87, 0x3e,
	0x89, 0xc1, 0x07, 0xbd, 0xbf, 0x1d, 0xbf, 0xbd, 0xde, 0x2b, 0x0e, 0xbe,
	0x84, 0x28, 0x91, 0x3d, 0xd1, 0x0c, 0x85, 0x3e, 0xdb, 0x71, 0x30, 0x3e,
	0xa7, 0x92, 0x82, 0xbe, 0xb3, 0x3a, 0x68, 0xbd, 0x37, 0xce, 0x95, 0x3d,
	0x23, 0x5f, 0x75, 0xbd, 0x5b, 0x84, 0xbc, 0xbd, 0xd5, 0xd7, 0x66, 0xbe,
	0xa0, 0x28, 0x1e, 0xbe, 0xd4, 0x0f, 0x99, 0xba, 0x2a, 0xa8, 0x88, 0x3e,
	0x87, 0x17, 0x01, 0x3e, 0x3c, 0xfc, 0xa4, 0x3e, 0x06, 0x7b, 0x04, 0xbe,
	0x5a, 0x2d, 0x28, 0x3d, 0x2b, 0x8c, 0x1c, 0xbe, 0xd4, 0x66, 0xef, 0x3e,
	0x8d, 0x4b, 0x80, 0xbe, 0xa6, 0x6d, 0xa5, 0xbd, 0xbc, 0x0d, 0x18, 0xbe,
	0x80, 0x4e, 0x97, 0x3d, 0xd4, 0xc6, 0xa6, 0xbe, 0x15, 0x57, 0x8a, 0xbd,
	0x5a, 0x86, 0xfc, 0x3b, 0x81, 0xce, 0x80, 0xbc, 0x06, 0x1b, 0x72, 0x3e,
	0xd7, 0x1b, 0xed, 0x3e, 0x2c, 0xc6, 0x8e, 0xbe, 0x70, 0xd8, 0x18, 0xbe,
	0x7b, 0x36, 0x9d, 0xbd, 0xc4, 0x51, 0x71, 0x3e, 0x74, 0x2a, 0x53, 0xbd,
	0x3a, 0x93, 0x00, 0x3f, 0x8b, 0x4b, 0x05, 0xbf, 0x48, 0x1b, 0x18, 0x3c,
	0x33, 0xb9, 0x30, 0xbc, 0x1a, 0x94, 0xc4, 0x3e, 0x0f, 0xae, 0x21, 0xbe,
	0x51, 0x4d, 0xdb, 0x3c, 0x9f, 0x69, 0x80, 0xbe, 0x5f, 0xed, 0x08, 0x3e,
	0x1f, 0x58, 0x67, 0x3c, 0x43, 0x96, 0x69, 0xbe, 0xc0, 0xfc, 0xc2, 0x3e,
	0xf5, 0xbb, 0xa8, 0x3d, 0xee, 0x3e, 0x4e, 0xbd, 0x2d, 0x25, 0x8f, 0xbe,
	0x6e, 0x94, 0x19, 0x3e, 0x58, 0x1b, 0x04, 0xbe, 0xb4, 0xc9, 0xd0, 0x3d,
	0x83, 0xb0, 0xb6, 0xbd, 0x12, 0xe2, 0xa3, 0xbd, 0x60, 0x22, 0xe1, 0x3b,
	0xf5, 0x5d, 0x14, 0xbe, 0xb0, 0x3c, 0xf2, 0xbd, 0xe3, 0x00, 0xb1, 0x3d,
	0xd3, 0xa4, 0xfc, 0xbd, 0x09, 0xea, 0xc7, 0x3e, 0x35, 0x87, 0x49, 0x3b,
	0xc2, 0xb9, 0x4b, 0xbd, 0x66, 0x0e, 0x60, 0xbe, 0xbb, 0xc9, 0x1c, 0x3e,
	0x99, 0x19, 0x09, 0x3e, 0x6d, 0x7b, 0xec, 0x3d, 0x7b, 0x8e, 0x03, 0xbd,
	0xc2, 0x1a, 0xd7, 0xbd, 0xf6, 0xb7, 0x56, 0x3e, 0x61, 0x28, 0xec, 0xbc,
	0xaa, 0xa1, 0x67, 0xbe, 0xe6, 0x30, 0xc6, 0x3d, 0x34, 0xc1, 0x61, 0xbe,
	0xae, 0xda, 0xfb, 0x3d, 0x14, 0x70, 0x0e, 0xbe, 0x5c, 0x07, 0x30, 0x3d,
	0x47, 0xa9, 0xca, 0xbd, 0x93, 0xb0, 0x85, 0x3d, 0xe3, 0x05, 0xf0, 0x3c,
	0x4a, 0xd9, 0xaf, 0x3d, 0x6f, 0x0f, 0x4a, 0xbe, 0xa1, 0x8f, 0xc8, 0x3d,
	0xdd, 0xf3, 0xdd, 0xbc, 0x7d, 0x70, 0x18, 0xbe, 0xcc, 0x91, 0xcf, 0xbc,
	0x60, 0xda, 0x74, 0x3e, 0x59, 0x7b, 0x5d, 0xbc, 0x45, 0x2a, 0xcc, 0xbd,
	0xb3, 0xb2, 0xba, 0xbd, 0x82, 0xb3, 0x83, 0x3c, 0x6e, 0xf3, 0x8d, 0x3e,
	0x47, 0x4c, 0xd7, 0xbd, 0x2a, 0x6d, 0xc4, 0xbd, 0x7d, 0x86, 0x2d, 0x3d,
	0x83, 0x2f, 0x4f, 0xbd, 0xaa, 0xc3, 0x59, 0xbe, 0x36, 0x1f, 0xf1, 0x3d,
	0x71, 0x5f, 0x59, 0x3d, 0x05, 0x7a, 0x17, 0xbe, 0x23, 0x4d, 0xdb, 0xbc,
	0x12, 0x39, 0xbf, 0x3d, 0xfb, 0xdb, 0xcf, 0xbd, 0x26, 0x89, 0xc6, 0xbc,
	0x04, 0xd3, 0x4d, 0x3d, 0x22, 0x39, 0x1e, 0xbc, 0x32, 0x01, 0xd9, 0x3d,
	0x11, 0xa4, 0xa4, 0x3d, 0x1f, 0x20, 0x19, 0xbe, 0x86, 0xa9, 0x93, 0x3d,
	0x0c, 0x62, 0xa8, 0x3d, 0x2d, 0x9a, 0xbe, 0xbd, 0xa7, 0xfa, 0xbe, 0x3d,
	0xe6, 0x0a, 0x8f, 0xbe, 0x9a, 0x2b, 0x20, 0xbc, 0x6d, 0x7b, 0x26, 0x3e,
	0x85, 0x19, 0x3a, 0x3d, 0x45, 0x08, 0x02, 0xbb, 0x02, 0x11, 0x8d, 0xbd,
	0xcd, 0x70, 0x3e, 0xbe, 0x3b, 0xa2, 0x96, 0x3b, 0xe9, 0xfc, 0x53, 0xbe,
	0xec, 0xb2, 0x68, 0x3d, 0x40, 0xe6, 0x26, 0x3e, 0xba, 0x68, 0x21, 0xbe,
	0xe1, 0x04, 0xcd, 0xbd, 0x53, 0x01, 0x8c, 0x3d, 0xfa, 0xac, 0xab, 0xbd,
	0x00, 0x07, 0x7e, 0x3d, 0x10, 0x8a, 0x85, 0xbe, 0x10, 0x37, 0x3b, 0xbe,
	0xdb, 0x5a, 0x1e, 0xbe, 0xdd, 0xb9, 0x62, 0x3e, 0x44, 0x6b, 0x98, 0x3e,
	0x50, 0x77, 0x11, 0x3e, 0x2a, 0x26, 0xdd, 0x3c, 0x27, 0x0f, 0x41, 0xbe,
	0x4f, 0x56, 0xd5, 0xbd, 0xe9, 0x20, 0xe5, 0x3d, 0x57, 0x36, 0x45, 0x3e,
	0xfe, 0xdf, 0xf7, 0x3d, 0x8a, 0x65, 0x7e, 0x3b, 0x01, 0x3e, 0x2b, 0xbd,
	0x2f, 0x32, 0x03, 0xbe, 0x79, 0xc0, 0xcf, 0x3b, 0xe8, 0x81, 0xfe, 0xbd,
	0x19, 0x39, 0x5c, 0xbd, 0x27, 0xb9, 0x73, 0xbd, 0xdc, 0xbc, 0x0a, 0x3d,
	0x32, 0x21, 0x8c, 0x3e, 0x25, 0x87, 0xdd, 0xbb, 0xed, 0x01, 0xc9, 0xbd,
	0x5f, 0x01, 0xfb, 0xbc, 0x5e, 0x73, 0xcf, 0x3d, 0x33, 0x7d, 0x8d, 0x3d,
	0x4a, 0x60, 0xae, 0xbc, 0x2d, 0xce, 0x53, 0xbe, 0xbf, 0x28, 0x24, 0x3e,
	0xeb, 0x3f, 0x01, 0x3f, 0x20, 0xcf, 0xff, 0x3d, 0x7b, 0xf3, 0xeb, 0xbd,
	0x95, 0xf7, 0x66, 0xbe, 0x1e, 0xec, 0x6b, 0xbc, 0x56, 0xa6, 0xba, 0x3d,
	0xf2, 0xf8, 0x1e, 0xbe, 0x57, 0x30, 0x56, 0xbe, 0x14, 0x4a, 0xc3, 0xbd,
	0x78, 0xab, 0xa1, 0xbe, 0x47, 0x9c, 0x21, 0x3e, 0x48, 0xe0, 0x0c, 0xbe,
	0x65, 0x07, 0xe2, 0x3d, 0x7d, 0x31, 0x49, 0x3a, 0x86, 0x76, 0x33, 0x3e,
	0x70, 0x28, 0x93, 0x3e, 0x15, 0x3f, 0x25, 0x3e, 0x5d, 0x82, 0x3f, 0xbe,
	0x15, 0x46, 0xae, 0xbd, 0x69, 0x91, 0x82, 0xbe, 0xbf, 0xcd, 0xcd, 0x3d,
	0x76, 0xd6, 0xb5, 0xbd, 0xb6, 0xb0, 0x87, 0x3c, 0x78, 0x5f, 0x85, 0xbd,
	0x09, 0x70, 0x0c, 0x3e, 0x29, 0x3b, 0x81, 0xbe, 0xe8, 0xd5, 0x77, 0x3e,
	0xe6, 0x85, 0x54, 0x3e, 0xc9, 0x0f, 0x33, 0xbd, 0x5e, 0x63, 0x84, 0x3e,
	0xce, 0xad, 0x35, 0x3e, 0x1b, 0xe4, 0x09, 0x3e, 0xe6, 0x89, 0xa3, 0xbe,
	0x11, 0x43, 0xcc, 0xbc, 0x27, 0x4f, 0x7d, 0xbe, 0x27, 0xe8, 0x69, 0xbe,
	0x0d, 0x4d, 0x96, 0x3e, 0x0b, 0x2a, 0x22, 0xbe, 0x92, 0x32, 0x94, 0xbb,
	0x4e, 0x81, 0x93, 0x3d, 0x32, 0xb3, 0xa4, 0x3e, 0xcc, 0x0e, 0x92, 0x3d,
	0xbf, 0x8b, 0x16, 0xbb, 0xc9, 0x2c, 0xdb, 0xbd, 0xed, 0xc0, 0x2c, 0x3e,
	0x86, 0xef, 0x75, 0xba, 0xfb, 0x78, 0x8a, 0x3e, 0xe4, 0x03, 0xdb, 0xbd,
	0x38, 0xfa, 0x89, 0xbe, 0x5a, 0x48, 0xbf, 0xbd, 0x05, 0x33, 0xb5, 0xbe,
	0x2a, 0x17, 0x9a, 0xbe, 0x85, 0x55, 0xb4, 0x3e, 0x1e, 0xd6, 0x87, 0xbd,
	0xe2, 0x94, 0xa2, 0xbe, 0xdd, 0x33, 0x69, 0xbe, 0xb5, 0x2b, 0x62, 0xbd,
	0x8d, 0xe0, 0xf3, 0x3e, 0x51, 0x4a, 0xa1, 0x3e, 0xf3, 0xbd, 0xef, 0x3b,
	0xd4, 0x92, 0xc5, 0xbe, 0x43, 0x3a, 0xce, 0xbd, 0x4c, 0x0d, 0x19, 0x3e,
	0x26, 0xc9, 0xfe, 0x3c, 0x1e, 0xe4, 0xae, 0x3d, 0x6a, 0xf7, 0xb7, 0x3d,
	0x19, 0x7d, 0xcf, 0xbc, 0xd9, 0xad, 0xc8, 0xbd, 0xce, 0xaa, 0x85, 0x3e,
	0x0c, 0xd3, 0x49, 0x3e, 0x70, 0x3e, 0xfb, 0xbb, 0x3f, 0xfb, 0xfc, 0x3e,
	0x44, 0x87, 0x3b, 0xbe, 0x24, 0xff, 0xe3, 0x3d, 0x3e, 0xe3, 0xb8, 0xbd,
	0x42, 0xa9, 0x2b, 0x3e, 0x20, 0xdc, 0x6e, 0xbe, 0x07, 0x06, 0x60, 0xbe,
	0x78, 0xa9, 0x4a, 0xbe, 0xe6, 0x20, 0xf9, 0x3d, 0xf4, 0x04, 0x8b, 0x3d,
	0x49, 0x21, 0x14, 0x3e, 0xdf, 0x5a, 0x61, 0xbe, 0x1f, 0x62, 0x3e, 0xbd,
	0xd1, 0x8f, 0xa9, 0xbc, 0xcd, 0xa1, 0xa7, 0x3a, 0x85, 0x8a, 0x11, 0x3e,
	0x5d, 0x75, 0x80, 0xbe, 0x29, 0x04, 0x7d, 0x3c, 0xcf, 0xbc, 0xb0, 0x3e,
	0x92, 0x56, 0xb1, 0xbe, 0xfc, 0x30, 0xab, 0x3c, 0xc6, 0xf1, 0x9d, 0x3e,
	0x55, 0x33, 0x70, 0x3d, 0x00, 0xd0, 0x3e, 0x3d, 0x38, 0xb4, 0x62, 0x3e,
	0x2e, 0x16, 0xfe, 0xbd, 0xb7, 0x23, 0x9f, 0xbd, 0x96, 0x21, 0x99, 0xbd,
	0x98, 0xe7, 0xdb, 0xbd, 0x1f, 0x84, 0x98, 0xbd, 0x9f, 0xa2, 0x1a, 0xbd,
	0x7f, 0x09, 0x83, 0x3d, 0x92, 0x3f, 0xe8, 0x3d, 0xa3, 0xd2, 0x0c, 0xbe,
	0x2e, 0x74, 0x2a, 0x3e, 0xe6, 0x58, 0x05, 0x3d, 0xb9, 0x6e, 0xdc, 0x3d,
	0x5f, 0x46, 0x27, 0xbd, 0x5e, 0x11, 0x22, 0xbb, 0xe2, 0x1b, 0x9d, 0x3e,
	0x17, 0x63, 0x2c, 0xbe, 0xc6, 0x6c, 0x91, 0xbe, 0xe6, 0xf5, 0xb6, 0x3e,
	0xed, 0x2c, 0x1f, 0x3e, 0x02, 0xfe, 0x3a, 0x3e, 0xb8, 0xb0, 0x15, 0x3e,
	0xef, 0xa3, 0x38, 0xbe, 0x40, 0xe1, 0x79, 0xbe, 0x12, 0xfe, 0x89, 0xbd,
	0xcf, 0xed, 0x15, 0x3e, 0x05, 0x15, 0x00, 0xbd, 0xe2, 0xff, 0xc1, 0xbe,
	0x71, 0xbc, 0xba, 0x3e, 0x6a, 0xaa, 0xb4, 0x3d, 0x80, 0x96, 0x94, 0xbd,
	0x17, 0xc4, 0x8f, 0xbd, 0x0e, 0x5a, 0xfe, 0x3b, 0x3d, 0x94, 0xdb, 0xbe,
	0x3e, 0x71, 0xbc, 0xbd, 0x2c, 0x8d, 0xc8, 0x3e, 0x2d, 0x87, 0x9f, 0xbe,
	0x56, 0x71, 0xeb, 0xbd, 0x12, 0x1f, 0x75, 0x3e, 0xe8, 0x1f, 0xa7, 0x3d,
	0xc1, 0xe9, 0xbc, 0x3d, 0x7c, 0x5e, 0xa4, 0xbd, 0xf7, 0xf5, 0x8a, 0xbd,
	0xf8, 0x98, 0xa4, 0xbe, 0xfd, 0x8d, 0x58, 0x3e, 0xe5, 0x9d, 0x08, 0xbe,
	0xe4, 0xb5, 0x70, 0xbe, 0x5c, 0x87, 0x37, 0xbe, 0xd5, 0x58, 0x79, 0x3d,
	0x81, 0xaf, 0x2f, 0xbd, 0x93, 0x5a, 0x5e, 0x3e, 0xa9, 0x37, 0x53, 0xbe,
	0x47, 0xe2, 0x4d, 0x3e, 0x58, 0x62, 0xa5, 0x3d, 0x05, 0x7f, 0x65, 0x3e,
	0x6e, 0x22, 0x14, 0xbf, 0x6f, 0x00, 0x45, 0xbd, 0x29, 0x64, 0x72, 0xbe,
	0x46, 0xab, 0xac, 0x3e, 0x83, 0x10, 0x12, 0x3e, 0xaa, 0x0a, 0x98, 0x3e,
	0xb0, 0xfe, 0x89, 0xbe, 0x00, 0xfd, 0x4f, 0x3d, 0x7c, 0x2d, 0x75, 0xbc,
	0xae, 0xe1, 0x0a, 0xbe, 0xb9, 0x67, 0x80, 0x3c, 0x78, 0x5d, 0x66, 0x3c,
	0x27, 0x4f, 0x0a, 0x3f, 0x77, 0xc5, 0xd9, 0xbe, 0x3a, 0xbd, 0x84, 0xbe,
	0xff, 0x47, 0x6d, 0x3d, 0x27, 0xfe, 0x86, 0x3e, 0x8a, 0x9a, 0xa4, 0x3d,
	0x02, 0xa5, 0x78, 0xbe, 0x75, 0x03, 0xf7, 0x3d, 0xe2, 0x1b, 0xb8, 0x3d,
	0x29, 0x87, 0xfa, 0x3e, 0x5c, 0x73, 0x37, 0x3e, 0xfc, 0xa6, 0x77, 0xbd,
	0x76, 0xb2, 0x2e, 0xbf, 0x4e, 0xcb, 0x86, 0xbe, 0xf4, 0x86, 0x0d, 0xbe,
	0x65, 0x69, 0x8f, 0x3e, 0xc5, 0x4c, 0x0b, 0x3e, 0x4e, 0xa5, 0x8e, 0x3e,
	0xbe, 0x2e, 0x12, 0xbe, 0xb4, 0x9d, 0xba, 0xbe, 0x9c, 0xd1, 0x2e, 0x3c,
	0x56, 0x3e, 0x3e, 0xbd, 0xee, 0xba, 0xe5, 0xbd, 0xb0, 0x24, 0x6c, 0x3e,
	0x85, 0xda, 0x8f, 0xbd, 0x1e, 0xa0, 0x80, 0x3e, 0x78, 0x02, 0xf3, 0x3d,
	0xff, 0x36, 0x94, 0x3e, 0x02, 0xa9, 0xa0, 0xbe, 0x09, 0x53, 0xe6, 0x3d,
	0x6b, 0x35, 0x04, 0xbf, 0x11, 0x05, 0xb7, 0x3e, 0xfc, 0xd4, 0x45, 0xbe,
	0x78, 0xd6, 0x34, 0xbe, 0xa1, 0x3e, 0x44, 0xbd, 0x1e, 0xfd, 0x1e, 0x3e,
	0xb8, 0xb8, 0xbb, 0x3e, 0xcc, 0xa2, 0xc9, 0xbd, 0xf0, 0x86, 0x3f, 0xbd,
	0xc7, 0xa9, 0x48, 0x3e, 0xbf, 0xb2, 0x08, 0xbe, 0x57, 0x4a, 0x5f, 0xbd,
	0xbc, 0x4f, 0x0c, 0xbc, 0x88, 0xac, 0x51, 0xbe, 0x77, 0xe5, 0x51, 0xbe,
	0x46, 0x7d, 0x31, 0xbe, 0xa1, 0x6b, 0x08, 0x3d, 0x01, 0xb5, 0x70, 0xbd,
	0x7e, 0x15, 0x9f, 0xbb, 0xc6, 0x4b, 0x42, 0xbe, 0x75, 0x36, 0xf3, 0x3d,
	0x1b, 0x16, 0xba, 0xbd, 0xf9, 0x0e, 0xc1, 0x3d, 0x28, 0xda, 0x10, 0x3e,
	0xa6, 0x22, 0x62, 0x3e, 0x18, 0x4b, 0xe2, 0x3c, 0xde, 0x2e, 0x66, 0xbd,
	0xc3, 0x6f, 0x22, 0x3e, 0x48, 0xdd, 0x13, 0xbe, 0x47, 0x64, 0x28, 0x3e,
	0xa2, 0xa6, 0x1c, 0xbe, 0x05, 0x10, 0x2b, 0xbe, 0xc2, 0xa0, 0x2b, 0x3d,
	0xd6, 0x61, 0xbc, 0xbd, 0x6c, 0xfe, 0xc3, 0x3d, 0x08, 0xc9, 0xd7, 0xbc,
	0x0c, 0xe0, 0x34, 0xbd, 0x1e, 0x8d, 0x32, 0xbe, 0xdb, 0x81, 0x91, 0x3e,
	0xa3, 0x81, 0xf8, 0xbe, 0x34, 0x9f, 0x96, 0xbe, 0x49, 0x6b, 0x86, 0x3e,
	0x0e, 0x8a, 0xb4, 0xbd, 0xad, 0x74, 0x5a, 0xbe, 0xaa, 0xc5, 0xe2, 0x3e,
	0x52, 0x0a, 0xce, 0xbd, 0x15, 0xef, 0xc9, 0x3e, 0x4e, 0x16, 0x0d, 0xbf,
	0x1a, 0x06, 0x74, 0x3d, 0x85, 0xfc, 0x1c, 0xbe, 0x5e, 0xa7, 0x08, 0x3e,
	0xa7, 0x2f, 0xf2, 0x3e, 0xa7, 0x15, 0x3b, 0x3d, 0x03, 0x36, 0x42, 0xbe,
	0x3b, 0xe2, 0x0b, 0x3f, 0xae, 0xcc, 0xb2, 0xbe, 0x64, 0xbe, 0x00, 0x3f,
	0x07, 0x1f, 0x88, 0xbe, 0xa8, 0x73, 0xa2, 0xbd, 0xff, 0x2a, 0xc5, 0xbe,
	0x4e, 0xd7, 0x9c, 0x3e, 0xbe, 0xef, 0x2a, 0x3e, 0x83, 0x7e, 0xca, 0x3d,
	0xdf, 0xa9, 0x16, 0xbc, 0x8f, 0xd0, 0x64, 0x3d, 0xc5, 0xd8, 0x66, 0x3e,
	0xdb, 0x6c, 0x10, 0x3d, 0x9b, 0x84, 0x5f, 0xbd, 0x44, 0x2e, 0xa2, 0xbb,
	0x09, 0x8d, 0x07, 0xbe, 0xee, 0xe3, 0xd0, 0xbd, 0xe1, 0xe3, 0xfe, 0x3c,
	0xf1, 0x36, 0xf8, 0xbc, 0x36, 0x15, 0xad, 0xbd, 0x76, 0x62, 0x1b, 0xbd,
	0x85, 0xd2, 0xd4, 0xbd, 0xbf, 0x44, 0xc6, 0xbd, 0x3b, 0x98, 0xcf, 0xbd,
	0x3f, 0xbf, 0xa5, 0x3e, 0x38, 0x89, 0x89, 0xbe, 0x84, 0xcf, 0x4b, 0x3d,
	0x56, 0x9e, 0xd9, 0x3d, 0x3f, 0x1d, 0xaa, 0x3b, 0xf2, 0xde, 0x25, 0xbe,
	0xaf, 0x32, 0xce, 0x3d, 0x9d, 0x65, 0x5d, 0xbd, 0xb3, 0x66, 0x57, 0xbe,
	0xfe, 0xc1, 0xf4, 0x3d, 0x29, 0x07, 0x86, 0x3e, 0x18, 0x0d, 0x0b, 0xbe,
	0x59, 0xf0, 0x02, 0x3c, 0x92, 0xa2, 0xba, 0x3e, 0x49, 0xc3, 0x94, 0xbe,
	0x36, 0xd9, 0x1a, 0x3e, 0x29, 0x2e, 0xfd, 0x3c, 0x15, 0x47, 0xba, 0x3d,
	0x62, 0xf9, 0xec, 0xbe, 0x9a, 0xf6, 0x5e, 0xbe, 0xb7, 0x36, 0xa7, 0xbb,
	0x46, 0x1d, 0x15, 0x3e, 0x06, 0x90, 0x5b, 0x3e, 0xdc, 0xf9, 0x52, 0x3e,
	0xc4, 0x9e, 0x10, 0xbe, 0x06, 0xf3, 0x21, 0x3e, 0x22, 0xcd, 0x0e, 0xbc,
	0xbf, 0xeb, 0xc8, 0xbd, 0x01, 0xc2, 0xa2, 0x3d, 0xaf, 0x03, 0x0f, 0xbe,
	0x31, 0xda, 0x7c, 0x3d, 0xa8, 0x6c, 0x89, 0x3d, 0x7d, 0x4f, 0x8a, 0xbc,
	0xcc, 0x67, 0xca, 0x3d, 0x51, 0xe3, 0x64, 0xbd, 0x74, 0x91, 0x7b, 0x3c,
	0xde, 0xe7, 0x0a, 0x3e, 0x0e, 0x19, 0x00, 0xbe, 0x33, 0xc5, 0x04, 0xbd,
	0x4c, 0x8f, 0x8b, 0x3d, 0x01, 0x1d, 0x53, 0x3d, 0xe6, 0x71, 0xb7, 0xbd,
	0x36, 0x15, 0x46, 0xbe, 0x1c, 0x67, 0x24, 0x3d, 0x0c, 0x27, 0x01, 0x3e,
	0x67, 0x52, 0xab, 0xbc, 0xba, 0xe0, 0x1c, 0x3d, 0x11, 0x6a, 0x89, 0xbe,
	0x83, 0xb9, 0x2b, 0xbe, 0x1f, 0x64, 0x08, 0x3e, 0x66, 0xf0, 0x47, 0x3e,
	0x1a, 0xd5, 0xdd, 0xbc, 0x54, 0x6c, 0x60, 0xbc, 0x30, 0xab, 0x18, 0x3e,
	0xa7, 0xc9, 0xe1, 0xbd, 0x24, 0x03, 0x89, 0xbe, 0xb3, 0xa4, 0x2e, 0x3e,
	0xc4, 0xe4, 0x9e, 0xbe, 0x66, 0x70, 0x05, 0xbe, 0x98, 0xee, 0x49, 0x3d,
	0x82, 0xed, 0x22, 0xbe, 0x2c, 0xf3, 0x7f, 0xbc, 0x0b, 0xcd, 0x51, 0x3d,
	0x7e, 0x23, 0x0f, 0x3e, 0x19, 0xc3, 0xd7, 0xbd, 0xb4, 0x58, 0x17, 0xbe,
	0xdc, 0xcc, 0x2c, 0xbe, 0x3b, 0x13, 0x9d, 0xbd, 0x52, 0x42, 0x80, 0x3e,
	0x0e, 0xd4, 0x44, 0xbb, 0x71, 0x43, 0x36, 0xbe, 0x95, 0x5c, 0x48, 0x3c,
	0x94, 0x85, 0x6b, 0xbd, 0x3a, 0x1c, 0xe2, 0xbd, 0xf5, 0x8e, 0xd2, 0xbc,
	0x33, 0x93, 0x93, 0x3d, 0x8d, 0xe8, 0x03, 0x3e, 0x81, 0x5e, 0xdc, 0xbd,
	0xed, 0xb7, 0x1a, 0xbd, 0xaa, 0x97, 0x11, 0xbe, 0x68, 0xf1, 0x6a, 0xbc,
	0x0d, 0x0f, 0xe6, 0xbd, 0x24, 0xc0, 0xbe, 0x3e, 0x93, 0xfd, 0x55, 0xbe,
	0x74, 0xa7, 0x0e, 0x3e, 0xdc, 0xe3, 0xde, 0xbd, 0xb0, 0x69, 0x53, 0x3e,
	0xd7, 0xbe, 0x0b, 0xbe, 0x09, 0xb5, 0xa4, 0xbc, 0x2f, 0x59, 0x5c, 0x3d,
	0xe1, 0x3d, 0xeb, 0x3d, 0x6b, 0x09, 0x73, 0xbd, 0xe1, 0xc0, 0x92, 0xbe,
	0xc3, 0x0a, 0x4a, 0xbe, 0x1e, 0xba, 0x84, 0x3e, 0x5a, 0x38, 0x38, 0xbd,
	0x83, 0x13, 0x04, 0x3e, 0x0f, 0x40, 0x07, 0xbd, 0x6d, 0x0c, 0xd5, 0x3d,
	0x66, 0xed, 0xd6, 0xbd, 0x75, 0x0d, 0xb9, 0xbe, 0xa4, 0xd4, 0xd0, 0xbe,
	0x4e, 0x6a, 0x08, 0x3f, 0x59, 0x1d, 0xe2, 0xbe, 0x62, 0x39, 0xf2, 0x3e,
	0xaf, 0xba, 0x6c, 0x3e, 0x34, 0x3b, 0xac, 0xbe, 0xc5, 0x13, 0xcf, 0x3e,
	0x9a, 0xed, 0x21, 0xbe, 0xd6, 0x21, 0xc7, 0xbd, 0xa3, 0xc6, 0x67, 0xbd,
	0x48, 0xc1, 0xac, 0xbd, 0x19, 0x50, 0x92, 0xbd, 0x57, 0xef, 0x1f, 0x3e,
	0x4a, 0xe3, 0x39, 0x3e, 0x5d, 0x2b, 0x2b, 0xbe, 0xfe, 0xaa, 0xc1, 0xbd,
	0xe7, 0x63, 0xf7, 0xbd, 0xcc, 0x50, 0x9a, 0x3c, 0xf7, 0x8a, 0x26, 0x3e,
	0xb4, 0xef, 0x8a, 0xbd, 0x1f, 0xed, 0x6f, 0x3d, 0x5f, 0x4d, 0x30, 0xbd,
	0x96, 0xeb, 0x11, 0x3e, 0x44, 0x01, 0x26, 0xbe, 0x56, 0x18, 0x3e, 0xbe,
	0x74, 0xbd, 0x74, 0x3d, 0x29, 0x20, 0x89, 0x3e, 0x38, 0xb3, 0xe3, 0xbc,
	0x19, 0xb1, 0x06, 0xbe, 0x8d, 0x55, 0x33, 0x3e, 0x7c, 0x53, 0x1a, 0xbe,
	0x3c, 0xaa, 0x05, 0x3e, 0x9f, 0xae, 0x2e, 0xbe, 0x07, 0x9a, 0x9f, 0x3d,
	0xcf, 0x08, 0x92, 0xbe, 0x9a, 0x44, 0xfa, 0x3d, 0xe8, 0xb3, 0xbd, 0xbd,
	0xac, 0x81, 0x0c, 0x3e, 0xe1, 0xdb, 0x4f, 0xbe, 0x15, 0x39, 0x66, 0x3b,
	0xa1, 0x88, 0x40, 0x3e, 0xb6, 0x63, 0xe9, 0x3c, 0x4f, 0x74, 0x1a, 0xbc,
	0x32, 0xf4, 0xb9, 0x3c, 0x62, 0x46, 0xc9, 0xbd, 0xf0, 0xe7, 0x38, 0xbe,
	0xb2, 0x79, 0xef, 0x3e, 0xc8, 0x51, 0x26, 0xbe, 0xff, 0x30, 0xce, 0x3d,
	0x6b, 0x1f, 0xa0, 0xbc, 0x82, 0x3d, 0x91, 0xbd, 0x61, 0x82, 0x2c, 0xbd,
	0xac, 0x30, 0xf2, 0x3b, 0xbc, 0x8f, 0x58, 0xbd, 0x01, 0x38, 0xed, 0xbd,
	0x04, 0x43, 0x01, 0xbe, 0x19, 0x79, 0x75, 0x3d, 0x4b, 0xa8, 0x12, 0xbe,
	0xad, 0xef, 0xd5, 0xbd, 0x9e, 0x0d, 0x29, 0x3d, 0x18, 0xeb, 0xef, 0x3d,
	0x7f, 0xe8, 0xf5, 0xbd, 0x73, 0x40, 0x34, 0x3e, 0xa6, 0x83, 0x33, 0xbe,
	0x22, 0xf6, 0x83, 0x3e, 0xc8, 0x29, 0x2c, 0x3e, 0x95, 0x39, 0x9d, 0xbc,
	0xfb, 0xf9, 0x44, 0xbe, 0x19, 0x4e, 0x17, 0xbe, 0x27, 0x08, 0x17, 0x3e,
	0xc3, 0x67, 0x72, 0xbe, 0xd3, 0x96, 0xdd, 0x3d, 0x9a, 0x46, 0x58, 0x3d,
	0x41, 0xf5, 0x81, 0xbe, 0x7c, 0xde, 0xc9, 0x3e, 0x7b, 0x73, 0xf3, 0xbb,
	0x00, 0x44, 0xf7, 0xbd, 0x53, 0x04, 0x0e, 0xbe, 0xf6, 0xf2, 0xc7, 0xbd,
	0x00, 0x04, 0x47, 0x3d, 0x3a, 0x4d, 0x30, 0xbe, 0xe0, 0xda, 0x5b, 0x3d,
	0x0d, 0x28, 0x89, 0x3d, 0x4e, 0x9a, 0xb5, 0x3c, 0x37, 0xf5, 0x9f, 0xb9,
	0x37, 0x44, 0x03, 0xbd, 0x04, 0x06, 0x74, 0xbd, 0x5b, 0x82, 0x88, 0x3d,
	0x9e, 0x25, 0x1b, 0x3d, 0x12, 0x84, 0x93, 0xbd, 0xfb, 0xb2, 0x6d, 0xbc,
	0xf6, 0xb0, 0xca, 0xbd, 0x1e, 0x77, 0x6e, 0xbd, 0xef, 0x7a, 0x8e, 0xbd,
	0x63, 0xe5, 0x7f, 0xbd, 0x24, 0x44, 0xe0, 0xbd, 0xb3, 0xcb, 0x0b, 0x3e,
	0x1a, 0xe9, 0xd9, 0x3d, 0x78, 0x0b, 0x2e, 0xbe, 0x50, 0xc9, 0x44, 0xbe,
	0x72, 0x4b, 0x9f, 0xbe, 0x61, 0x9b, 0x88, 0xbd, 0x4e, 0x4a, 0x89, 0x3e,
	0x95, 0x94, 0x3e, 0xbe, 0xa5, 0x9a, 0xcb, 0x3e, 0x94, 0x11, 0xbf, 0x3c,
	0xa4, 0x3f, 0x6c, 0x3d, 0x91, 0x7d, 0x5e, 0x3e, 0x60, 0x97, 0x85, 0x3e,
	0x41, 0x60, 0x88, 0x3d, 0xbe, 0x37, 0xa6, 0x3b, 0xf3, 0xfa, 0x02, 0xbf,
	0xa9, 0x6c, 0x14, 0xbd, 0xce, 0x48, 0x05, 0x3e, 0x79, 0x5d, 0x8e, 0x3e,
	0xda, 0x37, 0x04, 0x3d, 0xe0, 0x0e, 0xbf, 0xbe, 0x29, 0x2e, 0x4e, 0x3c,
	0xb5, 0x28, 0x94, 0xbe, 0x17, 0x55, 0x87, 0x3e, 0xba, 0xf5, 0x43, 0xbe,
	0xd8, 0x3b, 0x83, 0x3d, 0xa1, 0xd4, 0xdf, 0x3e, 0x67, 0x84, 0xc0, 0xbe,
	0x49, 0x8f, 0xf1, 0xbd, 0xad, 0xf5, 0x8a, 0x3e, 0xfa, 0x8f, 0xa0, 0x3d,
	0xb0, 0x77, 0xd9, 0xbd, 0x84, 0x95, 0x6a, 0x3d, 0xf9, 0x92, 0xcd, 0xbc,
	0x36, 0x56, 0x05, 0xbd, 0x53, 0xa2, 0xc9, 0xbd, 0xf7, 0xa5, 0x2f, 0xbd,
	0xd1, 0x10, 0x89, 0x3d, 0x99, 0xf1, 0x9d, 0x3c, 0x4a, 0x90, 0x04, 0x3e,
	0x1b, 0x9e, 0x06, 0xbe, 0x17, 0x07, 0xd0, 0x3d, 0xef, 0x24, 0xca, 0x3e,
	0xed, 0x16, 0x61, 0xbe, 0x4f, 0x43, 0xa9, 0xbe, 0xa3, 0xd8, 0x84, 0xbe,
	0x14, 0xe0, 0xd2, 0xbc, 0x8f, 0x2f, 0x40, 0xbe, 0x69, 0x9a, 0x24, 0x3d,
	0xa9, 0x84, 0x04, 0x3f, 0x81, 0x43, 0x04, 0xbd, 0x77, 0x95, 0x07, 0x3d,
	0xf9, 0xcf, 0x87, 0xbd, 0x79, 0x36, 0xbd, 0x3e, 0x82, 0xef, 0xb0, 0x3d,
	0x01, 0x9d, 0x5e, 0xbe, 0x5b, 0xb7, 0xa7, 0xbe, 0x74, 0x42, 0x50, 0x3e,
	0x8a, 0x8f, 0x2a, 0x3d, 0xc4, 0xd4, 0x18, 0xbd, 0x1c, 0x47, 0x83, 0x3e,
	0x82, 0xa8, 0x85, 0xbe, 0x03, 0x56, 0x98, 0x3e, 0x70, 0xbe, 0x07, 0xbe,
	0x0e, 0x89, 0xb2, 0x3e, 0x78, 0xd5, 0xcc, 0xbe, 0x65, 0x6b, 0xc3, 0xbc,
	0x25, 0x8d, 0x1c, 0x3e, 0xf0, 0x82, 0xb3, 0xbe, 0x05, 0x91, 0xcd, 0x3e,
	0x26, 0x3a, 0xb9, 0xbb, 0x9e, 0xfb, 0x82, 0xbe, 0x14, 0xf5, 0xfb, 0xbc,
	0x39, 0x84, 0xf8, 0xbd, 0xeb, 0xd4, 0x10, 0xbe, 0xb4, 0x14, 0x72, 0x3d,
	0x70, 0x99, 0xb2, 0xbd, 0x40, 0x8f, 0xb9, 0x3d, 0x35, 0xd5, 0x14, 0x3c,
	0x2f, 0x0d, 0xd5, 0x3b, 0x8c, 0x89, 0xc2, 0x3b, 0xbc, 0xdc, 0x08, 0xbc,
	0xdc, 0x22, 0x36, 0xbe, 0x90, 0x66, 0xe6, 0x3e, 0xb9, 0xfd, 0x1e, 0xbe,
	0xe7, 0xc9, 0x57, 0xbe, 0x67, 0x60, 0x88, 0x3d, 0x75, 0x3f, 0x26, 0x3e,
	0xe6, 0x42, 0x85, 0xbd, 0x55, 0xe3, 0xb6, 0x3a, 0xf7, 0x46, 0x3d, 0xbe,
	0xf2, 0xfc, 0xe6, 0xbd, 0x3d, 0xf7, 0xcd, 0xbd, 0x58, 0x04, 0xc9, 0x3d,
	0x6a, 0x21, 0x4d, 0xbe, 0x27, 0x1e, 0xb6, 0x3b, 0x33, 0x4e, 0xba, 0x3e,
	0xa7, 0x6f, 0xe6, 0x3d, 0xb9, 0x5c, 0xed, 0xbe, 0x27, 0x9c, 0x7b, 0x3d,
	0x27, 0x55, 0xbf, 0xbe, 0x7f, 0xd3, 0x04, 0x3f, 0xfa, 0xe0, 0x03, 0x3e,
	0x77, 0x14, 0xf2, 0xbd, 0x2c, 0x58, 0x0e, 0xbe, 0x9f, 0xce, 0x54, 0x3e,
	0x5f, 0x4d, 0x8b, 0xbe, 0x81, 0x2e, 0x8a, 0x3e, 0xa8, 0x2c, 0x63, 0xbe,
	0x82, 0xbe, 0x70, 0x3e, 0x13, 0xc3, 0x15, 0xbd, 0x9e, 0xe7, 0xf9, 0x3d,
	0x42, 0x0c, 0x50, 0x61, 0x72, 0x61, 0x6d, 0x65, 0x74, 0x65, 0x72, 0x31,
	0x39, 0x33, 0x2a, 0x9a, 0x64, 0x08, 0x10, 0x08, 0x08, 0x08, 0x05, 0x08,
	0x05, 0x10, 0x01, 0x22, 0x80, 0x64, 0x0a, 0xe3, 0x46, 0xbd, 0x5c, 0x65,
	0xba, 0xbd, 0xaf, 0x37, 0xd7, 0xbb, 0x31, 0x7c, 0x03, 0xbe, 0x15, 0x07,
	0xdf, 0x3d, 0xcf, 0x86, 0xac, 0x3d, 0x48, 0x6e, 0x2c, 0xbe, 0x83, 0xeb,
	0x8a, 0xbe, 0x4d, 0xdb, 0x9b, 0xbc, 0x88, 0xd9, 0x8d, 0x3d, 0x9c, 0xd1,
	0x22, 0x3d, 0x1a, 0xee, 0x40, 0xbc, 0x31, 0x69, 0x81, 0xbd, 0x07, 0x7b,
	0x1a, 0xbe, 0xfb, 0x48, 0xe6, 0xbd, 0x3f, 0x19, 0x8f, 0x3d, 0x89, 0x87,
	0x49, 0x3a, 0x89, 0xb7, 0xaa, 0x3d, 0x45, 0x64, 0x39, 0xbe, 0x2a, 0xb3,
	0xf2, 0xbd, 0x45, 0x8e, 0x5d, 0x3b, 0x81, 0xaa, 0x80, 0x3e, 0x19, 0x43,
	0x46, 0x3e, 0xf7, 0x53, 0x5f, 0xbd, 0x35, 0x37, 0x03, 0xbe, 0xdd, 0x1c,
	0xd9, 0xbe, 0x46, 0x8f, 0x8a, 0xbe, 0x8c, 0xd6, 0x84, 0xbe, 0x21, 0xf7,
	0xa5, 0x3d, 0xed, 0x29, 0xb4, 0x3d, 0x8f, 0x00, 0x1f, 0x3c, 0x3c, 0xef,
	0x6a, 0xbe, 0x23, 0x1b, 0x83, 0xbd, 0x78, 0xbb, 0xb2, 0x3c, 0xa5, 0x47,
	0x4b, 0xbd, 0xa6, 0x88, 0x2d, 0x3e, 0x04, 0x44, 0x71, 0x3e, 0xfb, 0x35,
	0x9f, 0xbc, 0x19, 0x46, 0x0a, 0xbe, 0x44, 0x58, 0x2f, 0xbd, 0x3e, 0x42,
	0x87, 0xbd, 0x02, 0x9b, 0x3e, 0x3e, 0x55, 0xd7, 0x39, 0x3e, 0xf9, 0x5c,
	0x14, 0xbe, 0xf6, 0x9c, 0xf6, 0x3c, 0x3a, 0x34, 0x0f, 0xbe, 0x6f, 0xa9,
	0xe8, 0x3d, 0x6d, 0x23, 0xd7, 0x3d, 0xb2, 0x18, 0x52, 0x3d, 0x03, 0xb2,
	0x6c, 0x3d, 0x67, 0xc9, 0x1e, 0xbe, 0xdf, 0x31, 0x09, 0xbe, 0xec, 0x82,
	0xa1, 0x3d, 0x50, 0x95, 0xee, 0x3d, 0x72, 0x8d, 0x0a, 0xbe, 0x9b, 0x04,
	0xff, 0xbd, 0xf2, 0x1c, 0x54, 0xbe, 0x8d, 0xd0, 0x11, 0xbe, 0xfc, 0xb9,
	0x7b, 0xbd, 0x90, 0xb3, 0xad, 0xbd, 0x75, 0xfb, 0x41, 0xbe, 0x6a, 0xec,
	0x61, 0xbe, 0xcb, 0xc3, 0x5d, 0xbe, 0x18, 0x87, 0xb1, 0xbd, 0xa4, 0xed,
	0x84, 0x3d, 0xad, 0xc2, 0x84, 0xbe, 0x8b, 0xdb, 0xd4, 0xbd, 0x09, 0x7b,
	0xaa, 0xbe, 0x9f, 0xe1, 0x09, 0xbe, 0x2b, 0x9f, 0x01, 0xbd, 0x78, 0xb2,
	0xe7, 0x3c, 0xed, 0x6b, 0xb7, 0x3d, 0x08, 0xa7, 0xde, 0xbd, 0x00, 0xf0,
	0x3f, 0xbe, 0x01, 0x2e, 0x65, 0xbe, 0xd8, 0x51, 0xd3, 0x3d, 0x67, 0xfe,
	0x42, 0xbd, 0x19, 0x14, 0xd9, 0xbc, 0x3c, 0x14, 0xb0, 0xbc, 0x4e, 0x1d,
	0xeb, 0x3c, 0x61, 0x07, 0x44, 0x3d, 0x7f, 0x51, 0xcb, 0xba, 0x3e, 0xb5,
	0xd4, 0x3d, 0x46, 0x4c, 0xb4, 0xbd, 0xbe, 0xfc, 0x60, 0xbd, 0x8c, 0x1b,
	0x9d, 0x3d, 0x32, 0x67, 0xd8, 0x3c, 0x03, 0xfb, 0x83, 0xbe, 0xe6, 0xab,
	0x91, 0xbe, 0x22, 0xa1, 0x55, 0xbe, 0xaf, 0x90, 0x92, 0x3c, 0x1e, 0xdd,
	0x8a, 0x3d, 0x3c, 0xb8, 0x0c, 0xbd, 0xfa, 0xf4, 0x9b, 0xbe, 0xed, 0xac,
	0x01, 0xbe, 0x68, 0xce, 0x2a, 0xbc, 0x84, 0x7a, 0xf0, 0x3d, 0x10, 0xf7,
	0x2d, 0x3e, 0x28, 0x57, 0x89, 0xbd, 0x19, 0x7e, 0x61, 0x3d, 0xfe, 0x08,
	0x33, 0x3e, 0x04, 0x2c, 0x86, 0xbd, 0x6d, 0x51, 0x0e, 0xbe, 0xcd, 0x02,
	0x9e, 0xbe, 0xf7, 0x05, 0xd6, 0xbd, 0x0a, 0x79, 0xbd, 0x3d, 0x22, 0x94,
	0x99, 0x3e, 0xd6, 0x66, 0x7a, 0x3d, 0x8f, 0x43, 0x65, 0xbe, 0xd9, 0xf7,
	0x5e, 0xbe, 0x3c, 0x97, 0xb1, 0xbd, 0x83, 0x78, 0x0d, 0x3d, 0xa0, 0x82,
	0xf9, 0x3d, 0xd9, 0xdc, 0x12, 0xbe, 0xb3, 0xba, 0x10, 0xbe, 0x60, 0xb5,
	0xd8, 0xbe, 0x63, 0x03, 0x11, 0xbd, 0xbd, 0xca, 0x59, 0x3d, 0x68, 0x27,
	0xc6, 0x3c, 0x96, 0xa7, 0x83, 0xbc, 0x1e, 0x99, 0xf6, 0xbd, 0x55, 0x81,
	0x26, 0xbe, 0x9f, 0x22, 0xc6, 0xbd, 0x5f, 0x06, 0x12, 0x3d, 0xbd, 0x92,
	0x5d, 0x3c, 0xcc, 0x4e, 0x13, 0x3e, 0x5f, 0x7c, 0xa1, 0x3c, 0x6f, 0xa2,
	0xac, 0xbe, 0xff, 0x82, 0x64, 0xbe, 0x31, 0xeb, 0x25, 0xbe, 0x98, 0x7f,
	0x2b, 0x3e, 0xdf, 0x70, 0xe7, 0x3e, 0xf8, 0x1f, 0x89, 0x3e, 0xbe, 0xad,
	0xff, 0xbd, 0x19, 0x7e, 0x5f, 0xbe, 0xcd, 0xbd, 0x18, 0xbe, 0xe2, 0xbb,
	0x9b, 0xbd, 0x50, 0xd7, 0x83, 0x3e, 0xc3, 0xb0, 0xd2, 0x3d, 0x7f, 0x4f,
	0x85, 0x3d, 0x92, 0x82, 0xd7, 0xbe, 0x69, 0x74, 0x9f, 0xbe, 0xcf, 0x84,
	0x13, 0xbd, 0x07, 0xab, 0x3f, 0x3d, 0x49, 0x85, 0xea, 0x3d, 0x39, 0x0f,
	0x5a, 0xbd, 0x56, 0x6d, 0x0b, 0xbe, 0xfd, 0x5d, 0x88, 0xbe, 0x5a, 0x2e,
	0x5a, 0xbe, 0xef, 0xbf, 0xfd, 0xbc, 0xdb, 0x9a, 0x5e, 0x3d, 0xcf, 0x9e,
	0x2e, 0xbe, 0x2f, 0x5b, 0x94, 0xbe, 0x9f, 0xa7, 0x29, 0xbd, 0x35, 0x8f,
	0x7c, 0xbe, 0x0d, 0x5f, 0xcb, 0x3d, 0x52, 0xee, 0x47, 0x3e, 0x18, 0x0d,
	0xc9, 0xbd, 0x92, 0x7d, 0x8a, 0xbe, 0x17, 0x5d, 0x19, 0xbe, 0xba, 0x41,
	0xaf, 0xbd, 0x2f, 0x95, 0x01, 0x3b, 0x88, 0x88, 0x5d, 0x3d, 0x7a, 0x7a,
	0x3f, 0x3d, 0xc1, 0xf1, 0x24, 0xbe, 0xda, 0xb4, 0xbe, 0x3c, 0x59, 0x91,
	0x85, 0x3d, 0x8b, 0xd4, 0x7b, 0x3e, 0x41, 0x60, 0x78, 0x3d, 0x70, 0x3a,
	0x52, 0x3c, 0x4b, 0xf9, 0xc1, 0xbd, 0x29, 0xb4, 0xd8, 0xbd, 0xc9, 0xd8,
	0x6a, 0x3e, 0xef, 0x34, 0x51, 0x3e, 0xd3, 0x1b, 0xb8, 0xbd, 0x29, 0x7b,
	0x7d, 0xbe, 0x95, 0xbb, 0x13, 0x3e, 0x4f, 0xd2, 0x54, 0x3d, 0x19, 0x40,
	0xc4, 0xbc, 0x5f, 0xcd, 0xcc, 0x3d, 0x88, 0xf8, 0x69, 0xbd, 0xbe, 0x58,
	0x9b, 0xbd, 0x52, 0x4c, 0x6b, 0xbd, 0x3c, 0x90, 0x51, 0x3d, 0xf4, 0x52,
	0xb1, 0x3d, 0xe4, 0x14, 0x7f, 0x3d, 0x1c, 0x35, 0x1e, 0xbe, 0x9b, 0xe3,
	0x0f, 0xbe, 0x74, 0x9e, 0xa5, 0x3c, 0x1a, 0x69, 0xe2, 0x3c, 0x24, 0x23,
	0xd0, 0xbd, 0x80, 0x5e, 0xeb, 0x3c, 0xd4, 0x14, 0x03, 0xbe, 0x94, 0x72,
	0x68, 0xbe, 0x6f, 0x9d, 0x89, 0xbe, 0x4e, 0x70, 0x08, 0x3e, 0xff, 0xe2,
	0x9f, 0x3d, 0xfb, 0xd4, 0xfc, 0xbd, 0x19, 0xe3, 0x14, 0xbe, 0x12, 0x0e,
	0x31, 0xbe, 0xcc, 0x69, 0x99, 0x3d, 0x42, 0xe0, 0x5b, 0x3e, 0xc4, 0xda,
	0x98, 0xbc, 0x1a, 0x58, 0x3e, 0xbc, 0x53, 0x8d, 0x21, 0xbe, 0xd4, 0xf2,
	0x20, 0xbd, 0x10, 0xf6, 0x6a, 0xbc, 0xa8, 0x21, 0x0f, 0xbd, 0x08, 0xd0,
	0x0c, 0x3e, 0x02, 0xe5, 0x80, 0x3e, 0x43, 0x27, 0x33, 0x3d, 0x86, 0x0b,
	0xc9, 0xbe, 0xe0, 0x8d, 0x9f, 0xbd, 0x65, 0x93, 0x19, 0x3e, 0x47, 0x21,
	0x53, 0x3e, 0x6c, 0x50, 0x10, 0xbe, 0x8c, 0xc7, 0x45, 0xbe, 0x83, 0x9a,
	0x31, 0xbd, 0x73, 0xc8, 0xb8, 0x3d, 0x47, 0x48, 0x5e, 0x3e, 0x0f, 0x09,
	0xac, 0xbd, 0xdf, 0x14, 0x4f, 0xbe, 0x9e, 0xb9, 0x06, 0xbe, 0x83, 0x8a,
	0xcc, 0xbd, 0x2e, 0x47, 0xe1, 0xba, 0xf1, 0x27, 0xbc, 0xbe, 0x86, 0xc7,
	0x9e, 0xbe, 0x63, 0x2f, 0xd3, 0xbe, 0xf5, 0xaf, 0x04, 0xbd, 0xba, 0xbf,
	0x13, 0xbe, 0xdd, 0x6f, 0xaa, 0xbd, 0x9f, 0xee, 0x84, 0xbd, 0xb8, 0x22,
	0x88, 0xbe, 0x5f, 0xe8, 0x71, 0xbd, 0x55, 0x8b, 0xd1, 0xbd, 0x38, 0xed,
	0x14, 0x3d, 0xb7, 0x6a, 0x0c, 0x3e, 0xc2, 0x87, 0x19, 0xbd, 0x42, 0x22,
	0xbf, 0xbd, 0xbe, 0x15, 0xe2, 0x3b, 0x97, 0xda, 0xa5, 0x3c, 0x88, 0x6e,
	0x6b, 0x3e, 0xd4, 0xbf, 0x13, 0xbc, 0xd3, 0x48, 0x2f, 0xbe, 0x28, 0xbc,
	0x38, 0xbe, 0x12, 0xcc, 0xbd, 0x3c, 0x3c, 0xbc, 0x1d, 0xbe, 0x44, 0x18,
	0x56, 0xbc, 0xce, 0xfd, 0x07, 0xbd, 0xcf, 0x84, 0xae, 0xbd, 0xac, 0x3f,
	0x63, 0xbe, 0x78, 0x17, 0x81, 0xbe, 0xc1, 0x28, 0x3d, 0xbe, 0xe3, 0x4b,
	0x66, 0xbd, 0xe7, 0x99, 0xc3, 0x3d, 0xce, 0x58, 0xd4, 0xbd, 0x33, 0xdb,
	0x2d, 0xbe, 0x9b, 0x23, 0x21, 0xbe, 0x3d, 0xd9, 0xee, 0x3a, 0x3f, 0x46,
	0xc8, 0x3b, 0xf2, 0x93, 0xc4, 0xbb, 0xd1, 0x0e, 0x56, 0x3e, 0x6d, 0xdd,
	0x82, 0x3d, 0x14, 0x5c, 0x29, 0x3e, 0x48, 0xa2, 0x8d, 0x3e, 0x66, 0x7d,
	0x6b, 0xbd, 0x65, 0x36, 0xb2, 0x3d, 0x93, 0x46, 0x17, 0x3e, 0x3d, 0xba,
	0x0b, 0x3e, 0x23, 0x48, 0x1c, 0xbc, 0xcb, 0xe2, 0x02, 0x3e, 0xd9, 0xcf,
	0x90, 0xbc, 0xe2, 0x87, 0x9f, 0xbd, 0x57, 0xfa, 0x05, 0xbd, 0xac, 0x44,
	0x1b, 0xbe, 0x92, 0xaf, 0x0b, 0x3e, 0x19, 0x46, 0xf6, 0x3c, 0x98, 0x62,
	0x92, 0xbd, 0x77, 0x23, 0x21, 0xbe, 0x3e, 0x8f, 0xa3, 0xbd, 0x9a, 0x23,
	0xc7, 0x3c, 0xd6, 0x9b, 0xd7, 0x3b, 0x1f, 0x00, 0x0e, 0xbe, 0x37, 0x50,
	0xe8, 0x3d, 0x17, 0x24, 0x73, 0x3e, 0x24, 0x59, 0x89, 0xbd, 0xb4, 0x50,
	0x02, 0xbe, 0x12, 0x79, 0xc6, 0xbc, 0xbb, 0xe4, 0x5e, 0x3e, 0xb3, 0x4a,
	0x76, 0x3e, 0xb6, 0xae, 0x69, 0xbe, 0x09, 0x74, 0x0c, 0xbc, 0x23, 0xe3,
	0x48, 0xbe, 0xc7, 0xe4, 0xb6, 0xbd, 0x39, 0xb7, 0x36, 0xbe, 0x99, 0xe8,
	0x4b, 0xbe, 0x75, 0x72, 0x9e, 0xbe, 0x86, 0xb3, 0xe2, 0xbd, 0xc6, 0x6a,
	0xf4, 0xbd, 0x05, 0xc4, 0x2a, 0x3d, 0x2b, 0x1a, 0x3c, 0x3c, 0xe5, 0x87,
	0xb9, 0xbd, 0x85, 0x5c, 0x25, 0xbe, 0x86, 0x7e, 0x25, 0xbe, 0x79, 0xc1,
	0xbf, 0xbd, 0xd5, 0x44, 0xcf, 0x3d, 0xe8, 0x18, 0x6c, 0x3e, 0x23, 0x10,
	0xab, 0x3e, 0xac, 0x89, 0x22, 0xbe, 0x69, 0x46, 0xe5, 0xbc, 0xd5, 0xee,
	0x1b, 0x3e, 0xbb, 0xd4, 0x07, 0x3d, 0x0e, 0xf7, 0x50, 0x3e, 0x78, 0x59,
	0xdc, 0x3d, 0x9c, 0x38, 0x02, 0x3e, 0x84, 0x8a, 0xd8, 0x3c, 0x4e, 0xf9,
	0x3d, 0xbe, 0x39, 0x5c, 0x5c, 0xbe, 0x87, 0x12, 0x1b, 0xbe, 0x29, 0x08,
	0x47, 0xbe, 0x41, 0x3c, 0xd0, 0xbd, 0x2a, 0xda, 0x88, 0xbd, 0xdb, 0xf3,
	0x39, 0xbe, 0xdd, 0xdf, 0x66, 0xbe, 0xab, 0xde, 0x7e, 0xbd, 0x70, 0x65,
	0x57, 0xbe, 0x39, 0x71, 0xb2, 0xbd, 0x7a, 0xd8, 0x06, 0xbe, 0xca, 0xf0,
	0xf3, 0xbd, 0x5f, 0x2b, 0x19, 0xbe, 0xfe, 0xad, 0xcc, 0x3d, 0xd0, 0xd4,
	0xf4, 0x3d, 0x5c, 0xec, 0x69, 0x3e, 0xbb, 0x2e, 0xea, 0xbc, 0xff, 0x24,
	0x35, 0x3d, 0x40, 0x4c, 0x21, 0x3e, 0x6c, 0x2d, 0xbc, 0x3d, 0x00, 0xe7,
	0x68, 0x3e, 0xab, 0xa5, 0xb2, 0xbc, 0xf7, 0x49, 0x44, 0x3e, 0x3a, 0xeb,
	0x96, 0x3d, 0x95, 0x66, 0x48, 0x3d, 0xdc, 0x99, 0x20, 0xbd, 0x91, 0xba,
	0x40, 0xbd, 0x00, 0x69, 0x6a, 0xbe, 0x55, 0x08, 0x14, 0xbd, 0xab, 0xae,
	0x29, 0x3d, 0x4c, 0xf9, 0x9e, 0xbd, 0xe7, 0xb1, 0x85, 0xbe, 0x7c, 0xc7,
	0xba, 0xbd, 0xb9, 0x13, 0x31, 0xbe, 0x3b, 0x10, 0x74, 0xbe, 0xd5, 0xae,
	0xd5, 0x3d, 0x60, 0x75, 0xff, 0xbc, 0x29, 0xec, 0x82, 0xbb, 0x86, 0x55,
	0x4c, 0xbd, 0xff, 0xba, 0x0b, 0x3e, 0xe0, 0x73, 0x5e, 0x3e, 0x56, 0x7d,
	0x4d, 0xbd, 0xd1, 0xf0, 0x2b, 0xbd, 0x4d, 0xeb, 0x81, 0xbd, 0x8f, 0x21,
	0x8d, 0xbd, 0xd1, 0xef, 0x0b, 0x3c, 0x05, 0x74, 0x79, 0x3e, 0x2f, 0x3a,
	0x0d, 0x3e, 0xeb, 0xbd, 0x36, 0xbc, 0x0b, 0x5c, 0x12, 0xbe, 0xcb, 0x60,
	0xe4, 0x3d, 0xcf, 0xc7, 0x95, 0x3d, 0x24, 0xca, 0xb3, 0xbd, 0x7d, 0x2d,
	0x49, 0x3d, 0x1b, 0x8d, 0x3f, 0xbd, 0xf1, 0x09, 0x40, 0xbe, 0xfc, 0x63,
	0x2a, 0xbe, 0xe3, 0x10, 0x50, 0xbd, 0xe2, 0x94, 0xad, 0xbd, 0x8d, 0xc2,
	0xdb, 0x3c, 0x2a, 0x23, 0xb1, 0xbd, 0x8c, 0xf4, 0x3e, 0xbe, 0x68, 0x37,
	0xf1, 0x3b, 0x6f, 0xa7, 0x0b, 0xbe, 0x1f, 0xea, 0x76, 0xbe, 0xbd, 0x13,
	0x8d, 0xbe, 0x8c, 0x1c, 0xd9, 0xbd, 0xa9, 0x29, 0x57, 0xba, 0x3d, 0x8d,
	0x9e, 0xbd, 0xa7, 0x9d, 0xe6, 0x3d, 0xda, 0xe7, 0xc8, 0x3d, 0x87, 0x46,
	0x22, 0xbd, 0x22, 0x21, 0x03, 0x3e, 0xde, 0x3e, 0xb3, 0x3d, 0x97, 0x74,
	0x8a, 0x3e, 0x7a, 0x8c, 0x4f, 0x3e, 0x64, 0x80, 0x54, 0x3e, 0xf4, 0x04,
	0x23, 0x3d, 0xdc, 0xdc, 0x18, 0xbe, 0x04, 0xa8, 0xbf, 0xbd, 0x73, 0xe1,
	0xdc, 0xbd, 0x68, 0x62, 0x47, 0xbe, 0x6d, 0xa6, 0x8a, 0xbe, 0x50, 0x70,
	0x20, 0xbe, 0xd2, 0x15, 0xda, 0xbc, 0x4c, 0xb8, 0xc6, 0x3d, 0x96, 0x5a,
	0x0e, 0xbc, 0x61, 0x52, 0x77, 0xbc, 0xd2, 0xf2, 0x37, 0xbe, 0x1c, 0x0f,
	0x70, 0xbd, 0x6c, 0x03, 0xa2, 0xbd, 0x88, 0xf9, 0x61, 0xbe, 0x85, 0x59,
	0xdc, 0x3d, 0x83, 0x44, 0x02, 0xbf, 0x74, 0xac, 0x9e, 0xbe, 0x73, 0xd6,
	0x11, 0xbe, 0xd8, 0x07, 0x64, 0x3c, 0x62, 0x48, 0x08, 0xbd, 0x84, 0x90,
	0x7a, 0xbd, 0xfb, 0x72, 0x69, 0xbe, 0x33, 0xf5, 0x2c, 0xbe, 0x47, 0x65,
	0xf0, 0xbd, 0x37, 0x5a, 0xba, 0xbd, 0xf0, 0x06, 0x85, 0x3d, 0xac, 0x46,
	0x71, 0xbe, 0xcc, 0x36, 0x89, 0xbc, 0xac, 0x60, 0xef, 0x3c, 0x67, 0xb5,
	0x56, 0x3e, 0x2c, 0x73, 0x2f, 0xbe, 0x22, 0xb4, 0xa0, 0x3e, 0xa7, 0x68,
	0x63, 0x3e, 0xd5, 0x19, 0x73, 0xbe, 0x08, 0xde, 0x2e, 0xbe, 0x8c, 0x3a,
	0x5f, 0xbe, 0xe0, 0x41, 0x4b, 0x3e, 0x0b, 0xfb, 0x2c, 0x3e, 0x4e, 0x2d,
	0x7c, 0x3d, 0x15, 0x5b, 0x2f, 0xbd, 0xc0, 0x69, 0x89, 0xbe, 0x92, 0xcc,
	0x87, 0x3d, 0xa1, 0x75, 0x95, 0x3e, 0xd2, 0xcc, 0x19, 0x3d, 0x9b, 0x59,
	0x2b, 0x3e, 0x63, 0xcf, 0xa5, 0xbe, 0x57, 0x8a, 0x84, 0xbe, 0x5a, 0xb7,
	0x94, 0xbd, 0x9e, 0x13, 0x48, 0xbe, 0x76, 0x1b, 0x91, 0x3d, 0x91, 0x67,
	0x9d, 0x3c, 0x48, 0x75, 0x95, 0xbd, 0x8a, 0x6d, 0x61, 0xbd, 0x90, 0x4b,
	0xd8, 0xbc, 0x46, 0x80, 0x40, 0xbe, 0x2a, 0x40, 0xbe, 0x3d, 0x9e, 0xd6,
	0x41, 0xbc, 0xe9, 0xac, 0x3c, 0xbe, 0x3d, 0xe8, 0xf8, 0xbc, 0x8c, 0x04,
	0xa6, 0xbd, 0xd4, 0x4b, 0xf2, 0x3d, 0xb9, 0x13, 0x0b, 0x3d, 0xf5, 0x3b,
	0x1b, 0xbe, 0x65, 0x39, 0xff, 0xbd, 0x10, 0x41, 0xb8, 0x3e, 0x95, 0x92,
	0x9b, 0x3e, 0xe7, 0x9c, 0x23, 0x3e, 0x96, 0x79, 0xf0, 0x3d, 0x8b, 0x03,
	0x32, 0x3e, 0x29, 0x74, 0x5e, 0x3e, 0x46, 0xb5, 0xc9, 0xbc, 0x90, 0x7d,
	0x54, 0xbd, 0xd0, 0xab, 0xa4, 0xbc, 0x50, 0xff, 0xd9, 0x3d, 0xfa, 0x76,
	0xec, 0xbd, 0x0e, 0xf0, 0xd1, 0x3d, 0x2e, 0x16, 0x82, 0xbd, 0x3d, 0x9b,
	0xee, 0xbd, 0x0d, 0xbc, 0x08, 0xbe, 0x07, 0xeb, 0x94, 0xbd, 0x58, 0x1c,
	0xa0, 0x3d, 0xab, 0x05, 0xa1, 0x3c, 0x2e, 0x7c, 0xd9, 0x3d, 0xc0, 0x54,
	0xa9, 0x3d, 0x0b, 0x13, 0x1e, 0x3e, 0x9b, 0x11, 0x97, 0xbe, 0x9d, 0xba,
	0x44, 0xbe, 0x50, 0xae, 0x95, 0xbd, 0x1f, 0xc5, 0x43, 0x3d, 0x17, 0xad,
	0x4e, 0x3e, 0x47, 0xd2, 0x62, 0xbe, 0x4e, 0x55, 0x92, 0xbe, 0x52, 0xc9,
	0xc9, 0xbe, 0x7d, 0x31, 0x04, 0xbe, 0x2b, 0x59, 0x8c, 0xbd, 0x2b, 0x2e,
	0x82, 0x3e, 0xd3, 0x8f, 0xc7, 0x3d, 0x55, 0x96, 0x6f, 0xbd, 0xda, 0x9f,
	0x0c, 0xbe, 0xe9, 0x83, 0x81, 0xbe, 0xea, 0xda, 0x87, 0x3e, 0xdb, 0xe5,
	0x39, 0x3d, 0xea, 0xf8, 0x7e, 0x3d, 0x23, 0xdd, 0x37, 0x3e, 0x10, 0x77,
	0x33, 0x3e, 0x36, 0x4e, 0xb5, 0x3d, 0xc0, 0x58, 0xbd, 0x3c, 0xc8, 0xbd,
	0x9d, 0xbd, 0xf9, 0xee, 0x9f, 0x3d, 0xcf, 0xb9, 0x3e, 0xbd, 0x00, 0x8c,
	0xac, 0xbd, 0x5a, 0x57, 0x84, 0xbd, 0x4f, 0x88, 0x00, 0xbe, 0xf6, 0x22,
	0xac, 0xbd, 0x40, 0xb8, 0x68, 0x3c, 0x7c, 0x0e, 0x11, 0x3d, 0xe4, 0x97,
	0x28, 0xbe, 0xda, 0x80, 0x7a, 0xbe, 0x3b, 0x23, 0xbd, 0xbe, 0xc7, 0xd5,
	0x38, 0xbe, 0xf3, 0xbb, 0x0e, 0x3e, 0x85, 0xc1, 0xd2, 0x3d, 0x3d, 0xbf,
	0xcc, 0xbd, 0x7c, 0x17, 0x1f, 0xbe, 0xbf, 0x8e, 0xcd, 0xbe, 0xb1, 0x14,
	0xa4, 0x3d, 0x67, 0x50, 0xee, 0x3d, 0xde, 0xfc, 0x47, 0x3d, 0x0c, 0xe2,
	0x53, 0x3e, 0x90, 0x7e, 0xd6, 0x3d, 0x73, 0x0f, 0x98, 0xbb, 0x81, 0x2a,
	0x77, 0x3b, 0x28, 0x5a, 0x41, 0xbe, 0x42, 0x77, 0xbb, 0x3d, 0x82, 0xa3,
	0xb5, 0xbd, 0x09, 0x3e, 0x3e, 0xbd, 0xa4, 0x9d, 0x25, 0xbe, 0xd2, 0x4e,
	0x1d, 0xbd, 0xaa, 0x33, 0x47, 0xbd, 0x13, 0x88, 0x54, 0xbd, 0x74, 0xfc,
	0x86, 0x3d, 0x0f, 0xcc, 0xb3, 0x3c, 0x7c, 0xa3, 0x02, 0xbe, 0x34, 0x49,
	0x46, 0xbe, 0xad, 0x48, 0x8a, 0xbe, 0x5e, 0x4c, 0xc1, 0x3d, 0xaa, 0xc3,
	0x68, 0x3e, 0xd8, 0x4c, 0xc3, 0x3d, 0x0b, 0xcd, 0x26, 0xbd, 0x21, 0xa3,
	0x73, 0xbe, 0x3f, 0x6b, 0x0f, 0xbe, 0x69, 0x3a, 0x24, 0x3d, 0xf8, 0xf1,
	0x5b, 0x3e, 0xe8, 0x2f, 0x8e, 0x3d, 0x2e, 0xfc, 0x9b, 0x3e, 0xdf, 0x6b,
	0x8a, 0xbd, 0x96, 0x23, 0x77, 0xbd, 0x44, 0x6a, 0x63, 0xbc, 0x94, 0xa7,
	0x64, 0x3e, 0x63, 0xa9, 0xf6, 0x3d, 0xcd, 0x03, 0x80, 0xbd, 0xca, 0x31,
	0x9f, 0xbd, 0x8b, 0xd1, 0x8f, 0x3b, 0xbd, 0x42, 0x87, 0xbd, 0x02, 0x08,
	0x9a, 0xbe, 0x1a, 0x10, 0x0e, 0xbe, 0x1c, 0x36, 0x62, 0xbe, 0x5f, 0x32,
	0x25, 0xbe, 0x72, 0x59, 0x8b, 0xbe, 0xd1, 0x64, 0x91, 0xbe, 0xb9, 0xce,
	0x5c, 0xbe, 0x3d, 0x0a, 0x97, 0xbd, 0xce, 0xa6, 0x48, 0xbe, 0x00, 0xe5,
	0x8b, 0xbe, 0x31, 0x68, 0x86, 0xbe, 0x56, 0xc4, 0x3e, 0xbe, 0xbe, 0xdb,
	0x66, 0x3e, 0x24, 0x84, 0xad, 0x3c, 0x4a, 0xec, 0x54, 0x3a, 0x1e, 0x45,
	0x37, 0x3c, 0x8c, 0xce, 0x86, 0x3d, 0x53, 0xf9, 0x09, 0xbd, 0x14, 0x76,
	0x53, 0xbe, 0x14, 0x8b, 0x52, 0xbe, 0x04, 0x71, 0x54, 0xbe, 0x42, 0x76,
	0xa2, 0xbc, 0xc8, 0xe0, 0x4e, 0x3d, 0x0e, 0x8a, 0x9a, 0x3b, 0xaa, 0x14,
	0x4e, 0xbd, 0xbe, 0xe2, 0x71, 0x3e, 0xa0, 0xf3, 0x83, 0xbd, 0x03, 0x03,
	0x5b, 0x3d, 0x62, 0xbe, 0x89, 0x3e, 0xe5, 0xf6, 0xb0, 0x3e, 0xf9, 0x64,
	0x51, 0x3e, 0x6d, 0xbd, 0xd4, 0xbe, 0x21, 0x0d, 0x7c, 0xbe, 0x0b, 0xff,
	0xd5, 0xbd, 0x14, 0x87, 0x37, 0xbd, 0xc2, 0xa0, 0xdc, 0x3c, 0xb6, 0x50,
	0xb2, 0x3d, 0x77, 0xcc, 0x65, 0xbe, 0x06, 0x7e, 0x6a, 0xbe, 0x9d, 0x43,
	0xd5, 0x3b, 0x08, 0x17, 0x94, 0xbc, 0xf5, 0x38, 0xac, 0x3e, 0x21, 0x3b,
	0x53, 0x3d, 0xb3, 0xa3, 0xd1, 0xbd, 0x8c, 0xd6, 0x6c, 0xbd, 0xfe, 0x19,
	0x24, 0xbe, 0x93, 0xe8, 0x1e, 0xbc, 0x90, 0x3f, 0x56, 0xbe, 0xbc, 0xec,
	0xb2, 0x3d, 0xac, 0x43, 0xca, 0xbd, 0x53, 0xcf, 0x0b, 0xbe, 0xe5, 0x49,
	0x50, 0xbd, 0x1a, 0x4f, 0x23, 0xbe, 0x61, 0x66, 0xa6, 0x3d, 0x28, 0xf2,
	0x6f, 0x3d, 0x1a, 0xaf, 0x67, 0xbd, 0x24, 0xb2, 0x3d, 0xbc, 0x0e, 0xbc,
	0x00, 0xbe, 0x17, 0x5d, 0x1d, 0x3e, 0xa7, 0xec, 0x10, 0xbd, 0xec, 0x80,
	0xa7, 0xbc, 0x83, 0xa9, 0x29, 0xbe, 0xc5, 0x73, 0xa9, 0xbe, 0x9b, 0x98,
	0x65, 0xbe, 0x29, 0x0e, 0x95, 0x3c, 0x9f, 0x63, 0x69, 0xbe, 0xbc, 0x01,
	0x8e, 0x3d, 0x98, 0x8c, 0xff, 0x3d, 0xcb, 0x5a, 0xfe, 0x3d, 0xac, 0x9e,
	0x4d, 0xbd, 0x55, 0x1d, 0xbe, 0x3a, 0x68, 0xc0, 0xc7, 0x3d, 0xcb, 0xe1,
	0x85, 0x3e, 0x67, 0xf6, 0x2d, 0x3d, 0x1c, 0xed, 0xbb, 0xbd, 0x35, 0x36,
	0x88, 0x3e, 0x40, 0x54, 0x45, 0x3c, 0x31, 0x07, 0x82, 0x3d, 0xf9, 0x5d,
	0x95, 0x3e, 0x6b, 0xd8, 0x56, 0xbe, 0x28, 0xdb, 0xa5, 0xbd, 0xf3, 0x18,
	0x1b, 0xbe, 0xd4, 0xbb, 0x8a, 0x3c, 0x89, 0x07, 0xd7, 0x3c, 0x1d, 0x50,
	0x93, 0xbe, 0x05, 0x5e, 0x1f, 0xbe, 0xf0, 0x52, 0xed, 0xbd, 0x3e, 0xec,
	0x29, 0xbe, 0xd1, 0x15, 0x47, 0xbd, 0x2f, 0x50, 0xbb, 0xbd, 0xe9, 0x51,
	0xaf, 0xbe, 0x80, 0xee, 0xa8, 0xbd, 0xc3, 0xe9, 0x15, 0xbe, 0x99, 0xbf,
	0x7c, 0x3d, 0xa8, 0x92, 0x83, 0xbd, 0xab, 0xb1, 0xd7, 0x3d, 0x29, 0x84,
	0x05, 0x3d, 0xae, 0x76, 0x24, 0xbd, 0xda, 0x6a, 0x2b, 0xbd, 0xc0, 0xed,
	0x15, 0xbe, 0xbd, 0x77, 0x3e, 0x3d, 0xbc, 0x30, 0x44, 0xbe, 0x26, 0x12,
	0xc7, 0xbd, 0x99, 0x3e, 0xdb, 0xbc, 0xbf, 0xb6, 0x0e, 0xbc, 0x84, 0xd8,
	0x3b, 0xbe, 0xda, 0x10, 0x05, 0x3d, 0x87, 0xda, 0x60, 0x3d, 0x35, 0x75,
	0x67, 0x3d, 0x72, 0x53, 0xb9, 0x3d, 0x87, 0x2a, 0x95, 0xbd, 0xb6, 0xff,
	0x26, 0x3d, 0xf8, 0x07, 0x91, 0x3c, 0xc1, 0xc5, 0xbd, 0x3c, 0x18, 0xec,
	0xae, 0x3d, 0x68, 0x10, 0x96, 0x3d, 0x4d, 0x4f, 0x97, 0x3d, 0xb5, 0x87,
	0x49, 0x3e, 0xef, 0x11, 0x08, 0x3e, 0x98, 0x1c, 0xa6, 0xbd, 0x71, 0x83,
	0xbc, 0xbd, 0x1c, 0x8d, 0xad, 0xbc, 0x82, 0x08, 0x85, 0x3d, 0x29, 0x60,
	0x88, 0x3c, 0x6e, 0xb8, 0x4c, 0xbe, 0xa0, 0xb6, 0xc8, 0xbe, 0xc1, 0xa3,
	0x5a, 0x3d, 0x5c, 0xe1, 0x17, 0x3e, 0xaf, 0x80, 0x82, 0xbc, 0xd2, 0xc7,
	0x3f, 0xbd, 0x36, 0x2d, 0x40, 0xbe, 0x32, 0xd8, 0x1e, 0xbd, 0x27, 0xc4,
	0xc4, 0xbd, 0x69, 0x34, 0x77, 0xbe, 0xde, 0xfd, 0xe1, 0xbd, 0x0e, 0xa3,
	0xff, 0xbd, 0x1b, 0xd7, 0x46, 0xbe, 0xd8, 0x33, 0x58, 0xbe, 0xb8, 0x01,
	0xb7, 0xbd, 0x1d, 0xb9, 0xe5, 0xbd, 0xef, 0x83, 0x4a, 0xbe, 0xe3, 0xb5,
	0xe9, 0xbd, 0x63, 0x1a, 0x74, 0xbd, 0x85, 0x2d, 0xca, 0x3d, 0x52, 0xb0,
	0x47, 0xbb, 0xd6, 0x3f, 0xc2, 0x3d, 0x9f, 0x66, 0x8d, 0xbe, 0x84, 0x70,
	0x8d, 0xbe, 0x9d, 0xf1, 0xdb, 0x3d, 0xab, 0xe9, 0x2a, 0x3e, 0x0b, 0x08,
	0x1f, 0xbe, 0x9a, 0xc8, 0xcd, 0xbd, 0x69, 0x15, 0x67, 0xbd, 0xb1, 0x75,
	0x2d, 0xbe, 0x00, 0x85, 0xe2, 0x3d, 0xd0, 0xc3, 0x03, 0xbe, 0x1c, 0x1e,
	0x69, 0xbe, 0x7c, 0x3c, 0xc5, 0xbd, 0x78, 0xbd, 0xd0, 0xbd, 0xd1, 0xf4,
	0xd1, 0xbd, 0x2b, 0x6f, 0xba, 0xbd, 0xa6, 0x50, 0xca, 0xbd, 0xc5, 0xa8,
	0x01, 0xbe, 0xf7, 0xa7, 0x8f, 0xbd, 0xcf, 0x87, 0x09, 0xbd, 0x91, 0xda,
	0x50, 0xbe, 0xad, 0xa5, 0x0e, 0xbe, 0x6f, 0x2a, 0x66, 0xbe, 0xc4, 0x20,
	0xab, 0xbd, 0x72, 0x74, 0xc3, 0x3c, 0x7b, 0xba, 0x24, 0x3e, 0xf8, 0xa8,
	0x21, 0xbe, 0xb8, 0x13, 0x72, 0xbe, 0x68, 0x13, 0x3f, 0xbe, 0xc7, 0xde,
	0xa9, 0x3d, 0xc4, 0xe1, 0xfc, 0x3b, 0x07, 0x77, 0x42, 0xbe, 0xb2, 0xdc,
	0x16, 0xbd, 0x38, 0x92, 0x11, 0xbe, 0xaa, 0xeb, 0x3b, 0xbd, 0xa0, 0x43,
	0x17, 0x3d, 0xc9, 0xdf, 0x90, 0xbe, 0x5c, 0x7d, 0x29, 0xbe, 0x7e, 0xf6,
	0x3d, 0xbe, 0x54, 0x91, 0x6b, 0xbe, 0xab, 0x8e, 0x36, 0xbd, 0xc7, 0x29,
	0x54, 0xbe, 0x19, 0x1e, 0x7f, 0xbd, 0xcb, 0xc4, 0xd9, 0xbc, 0xa3, 0xf6,
	0xb9, 0xbd, 0xb3, 0xec, 0x90, 0xbc, 0x04, 0xe9, 0x5a, 0xbe, 0x81, 0x07,
	0x2e, 0xbe, 0x36, 0xea, 0x4e, 0xbd, 0x86, 0x74, 0x24, 0x3e, 0x63, 0x7a,
	0xd6, 0xbd, 0x9d, 0xbc, 0x3c, 0xbe, 0x59, 0x6e, 0xa7, 0xbd, 0x96, 0x9f,
	0xc5, 0x3c, 0xd9, 0xe9, 0xa1, 0x3e, 0x1d, 0xec, 0xa8, 0xbc, 0x6d, 0xcb,
	0x17, 0xbd, 0x57, 0x3c, 0x82, 0xbc, 0xa7, 0xdc, 0x8e, 0x3d, 0x81, 0xe9,
	0xd0, 0x3e, 0x46, 0xd1, 0x44, 0x3e, 0xc5, 0xba, 0x1b, 0xbe, 0xb2, 0xf8,
	0xa4, 0xbd, 0x05, 0x7e, 0x42, 0x3e, 0xab, 0xdb, 0x82, 0x3e, 0xd9, 0xa8,
	0xb9, 0x3b, 0x86, 0x39, 0x82, 0xbd, 0x20, 0xa0, 0xc0, 0xbc, 0xa2, 0xbd,
	0xe9, 0x3c, 0xdf, 0x26, 0xdd, 0xbd, 0x03, 0x8a, 0xa0, 0xbd, 0xb9, 0xe7,
	0xe2, 0x3b, 0x54, 0x76, 0xf5, 0xbc, 0x4c, 0x80, 0x50, 0x3e, 0x0a, 0x01,
	0xd3, 0x3d, 0xe7, 0x5f, 0x7b, 0x3d, 0x3c, 0xeb, 0xd8, 0xbd, 0xce, 0x14,
	0x9d, 0x3d, 0x2d, 0xe9, 0x88, 0x3a, 0x37, 0xd2, 0x44, 0x3e, 0x39, 0x52,
	0x6f, 0x3d, 0x9e, 0x2d, 0x56, 0xbe, 0xac, 0xc9, 0xe2, 0xbd, 0x48, 0x4e,
	0x1b, 0x3e, 0x58, 0x1c, 0x18, 0xbd, 0xc2, 0xe7, 0x5d, 0xbd, 0x4b, 0x83,
	0x66, 0xbd, 0x3a, 0x3b, 0x2d, 0x3e, 0x90, 0x08, 0x31, 0x3e, 0xe1, 0x2d,
	0x93, 0xbd, 0x0a, 0x8c, 0x1e, 0xbe, 0x72, 0x45, 0xc7, 0x3d, 0xe9, 0xad,
	0xb0, 0xbd, 0x1a, 0xa4, 0x1a, 0x3d, 0x45, 0xb6, 0xf8, 0xbd, 0x97, 0xa3,
	0x34, 0xbe, 0xcf, 0x5e, 0x19, 0xbd, 0xd1, 0x2b, 0xf8, 0xbd, 0x0b, 0x4d,
	0x85, 0xbd, 0xbb, 0xef, 0x3d, 0xbc, 0xdc, 0x72, 0x3e, 0xbe, 0x5d, 0xc5,
	0x33, 0x3e, 0x86, 0x88, 0x69, 0x3e, 0x49, 0x6d, 0xe6, 0x3d, 0x06, 0x03,
	0xab, 0x3d, 0x6c, 0xd0, 0xf6, 0xbd, 0xd5, 0xf3, 0x2f, 0x3e, 0xde, 0xa3,
	0x5a, 0x3e, 0x02, 0x3f, 0x60, 0x3d, 0xcf, 0x55, 0x83, 0x3e, 0xf9, 0xe5,
	0x38, 0xbd, 0xa2, 0x20, 0x9d, 0xbd, 0x7c, 0x03, 0xf1, 0xbc, 0x25, 0x08,
	0xc3, 0x3e, 0x8a, 0x3e, 0xf0, 0x3d, 0x9a, 0xbb, 0x81, 0x3c, 0x13, 0x94,
	0x37, 0xbe, 0x4b, 0x22, 0x90, 0xbc, 0x79, 0x0e, 0xd7, 0x3d, 0xe9, 0x50,
	0xe7, 0x3b, 0xb0, 0x4a, 0x75, 0xbd, 0xa5, 0x9b, 0x92, 0xbb, 0x52, 0xcb,
	0x0f, 0xbe, 0xb5, 0xcb, 0x88, 0xbd, 0xbb, 0x2f, 0x47, 0xbe, 0x64, 0x4f,
	0x44, 0xbd, 0x11, 0xb9, 0x66, 0x3c, 0x56, 0x8c, 0x59, 0xbd, 0x1f, 0x94,
	0xc7, 0x3d, 0x5f, 0xba, 0x3a, 0x3e, 0xca, 0x75, 0x8b, 0x3e, 0x36, 0xd5,
	0x17, 0x3e, 0xcb, 0x2f, 0xdf, 0xbd, 0xd8, 0x1f, 0xc9, 0xbb, 0x60, 0x3f,
	0x6e, 0x3c, 0x07, 0x15, 0xef, 0x3c, 0x00, 0xac, 0x2d, 0xbd, 0x9e, 0x33,
	0x15, 0xbe, 0x9b, 0xbc, 0x87, 0xbe, 0x02, 0x73, 0x4f, 0xbe, 0xc2, 0x65,
	0x6d, 0xbe, 0x22, 0x0e, 0x44, 0x3e, 0x06, 0xb9, 0x08, 0x3e, 0x23, 0xb3,
	0x1b, 0xbe, 0x86, 0x9c, 0x61, 0xbe, 0xe2, 0x52, 0x96, 0xbe, 0x84, 0xd9,
	0x93, 0xbd, 0xe7, 0x6e, 0x56, 0xbd, 0x43, 0x50, 0x90, 0x3d, 0x6e, 0x1a,
	0x2b, 0x3e, 0x39, 0xef, 0x26, 0x3e, 0x76, 0xb6, 0x39, 0xbd, 0xaf, 0x56,
	0x29, 0xbe, 0x3c, 0x35, 0x21, 0xbe, 0x3b, 0x9b, 0xb0, 0xbd, 0xd7, 0x96,
	0x0f, 0xbc, 0x79, 0xc1, 0x85, 0xbd, 0x4d, 0xd7, 0xef, 0xbd, 0x76, 0x03,
	0x94, 0xbe, 0x3b, 0xc3, 0x11, 0xbe, 0xa7, 0x3b, 0x8f, 0xbd, 0xb4, 0x4e,
	0x96, 0xbd, 0xce, 0x99, 0x40, 0x3d, 0x65, 0xc4, 0x90, 0x3d, 0x91, 0xc0,
	0x3e, 0x3c, 0xa5, 0x8b, 0xc8, 0x3a, 0xc0, 0x2f, 0x89, 0x3e, 0x93, 0x5b,
	0xd4, 0x3e, 0xbb, 0xec, 0xa9, 0x3e, 0x1d, 0x76, 0x59, 0x3d, 0xef, 0xe9,
	0xba, 0xbd, 0x88, 0x7d, 0xba, 0xbd, 0x71, 0xeb, 0xa4, 0xbd, 0x56, 0xd1,
	0x9e, 0xbd, 0x9e, 0xd5, 0x1b, 0xbe, 0x2a, 0x38, 0x8e, 0xbd, 0xfa, 0x8d,
	0x23, 0xbe, 0x17, 0x1b, 0x90, 0x3c, 0x5e, 0x6b, 0x89, 0x3c, 0xb8, 0x83,
	0xd5, 0xbd, 0xcb, 0x6a, 0x1a, 0xbe, 0x00, 0xad, 0x0a, 0xbe, 0xd8, 0x14,
	0x61, 0xbc, 0x0e, 0x2b, 0xdf, 0xbc, 0xda, 0xf7, 0xf8, 0x3d, 0xc8, 0xfe,
	0x4a, 0xbe, 0xf0, 0x5b, 0xd5, 0xbc, 0x86, 0x05, 0xd2, 0x3c, 0xfd, 0xcd,
	0x71, 0xbd, 0xa0, 0xff, 0x66, 0x3b, 0xd2, 0x4e, 0xc1, 0xbd, 0x5a, 0xd5,
	0x05, 0xbe, 0x84, 0xa4, 0x71, 0xbe, 0xa7, 0xe0, 0xdc, 0xbd, 0xc3, 0x0d,
	0x89, 0xbe, 0x09, 0x47, 0x8f, 0xbd, 0xf9, 0x5b, 0xde, 0x3c, 0x06, 0x1e,
	0x96, 0x3e, 0x8b, 0x20, 0x78, 0x3e, 0x06, 0x67, 0xe8, 0x3d, 0x9f, 0xc6,
	0xc2, 0x3d, 0x7c, 0x4f, 0x94, 0xbb, 0xcb, 0x80, 0x8d, 0x3d, 0x33, 0x3c,
	0xf2, 0x3c, 0x18, 0xf5, 0x06, 0xbd, 0x64, 0x59, 0xab, 0xbd, 0xd6, 0x16,
	0x20, 0xbd, 0x4b, 0x20, 0x14, 0x3d, 0x66, 0x3f, 0x76, 0xbd, 0x50, 0xfd,
	0xaf, 0x3d, 0x41, 0x7e, 0x8d, 0xbd, 0xaf, 0xc0, 0x1a, 0x3d, 0x16, 0xab,
	0xe7, 0x3d, 0xd1, 0x2c, 0x95, 0xbb, 0x00, 0x9d, 0x54, 0xbd, 0x01, 0x11,
	0x87, 0xbd, 0xae, 0xd7, 0x1d, 0xbd, 0x64, 0x0a, 0x92, 0xbc, 0x9b, 0xcd,
	0x5d, 0xbe, 0x48, 0x8a, 0x87, 0xbe, 0x75, 0xcf, 0x6f, 0xbe, 0xe1, 0x61,
	0x0d, 0xbd, 0xe7, 0x78, 0xc8, 0x3d, 0x6b, 0x4d, 0x3b, 0x3e, 0xe9, 0x18,
	0x24, 0x3e, 0x42, 0x33, 0x7b, 0x3e, 0x80, 0x42, 0x33, 0x3d, 0xf6, 0x17,
	0x4a, 0x3e, 0x32, 0xd9, 0x96, 0x3d, 0x47, 0x95, 0x65, 0x3e, 0x93, 0xdc,
	0x75, 0xbd, 0x40, 0xdb, 0x8b, 0xbc, 0xc1, 0x3f, 0xc6, 0xbd, 0x09, 0x9c,
	0xc3, 0xbd, 0x28, 0x11, 0xc5, 0x3b, 0x36, 0x9d, 0x00, 0xbe, 0xeb, 0x39,
	0xc6, 0x3d, 0xca, 0x68, 0x24, 0x3e, 0x33, 0x82, 0xc2, 0xbd, 0xfe, 0xa7,
	0x87, 0xbe, 0x2f, 0xe3, 0x50, 0xbe, 0xbb, 0x75, 0x61, 0x3c, 0x1e, 0x46,
	0x1c, 0x3d, 0xf1, 0xe2, 0xbf, 0xbd, 0x2a, 0x07, 0x21, 0xbe, 0xca, 0x30,
	0x92, 0xbd, 0xce, 0x3f, 0xdb, 0xbd, 0xdc, 0xe7, 0x08, 0xbd, 0x07, 0x1f,
	0x18, 0x3d, 0xf8, 0xdd, 0xb8, 0xbd, 0x48, 0x90, 0xac, 0xbd, 0x71, 0xde,
	0x00, 0xbe, 0xca, 0xc6, 0x1a, 0xbe, 0x1a, 0x6e, 0xe4, 0x3b, 0xaf, 0x65,
	0x55, 0x3d, 0xda, 0xd6, 0xaa, 0x3c, 0x10, 0x3e, 0xe6, 0x3d, 0xe3, 0x52,
	0xd4, 0xbd, 0x60, 0x2c, 0x19, 0x3d, 0xd3, 0x4e, 0x87, 0x3d, 0x8a, 0xc0,
	0xde, 0x3c, 0x1c, 0x31, 0x62, 0x3c, 0x05, 0x2c, 0xe3, 0xbd, 0xc2, 0xfd,
	0x6c, 0xbe, 0x2d, 0xc2, 0x3b, 0x3d, 0xe3, 0x88, 0xa8, 0x3d, 0xfb, 0xda,
	0x66, 0xbe, 0xdb, 0x00, 0xd2, 0xbd, 0x99, 0x23, 0xdf, 0xbd, 0x02, 0x66,
	0xc8, 0xbd, 0xaa, 0x82, 0xfb, 0xbc, 0xa5, 0xa5, 0x41, 0x3e, 0x22, 0xde,
	0x35, 0x3d, 0xc1, 0x8b, 0x9a, 0xbc, 0x4f, 0x88, 0x0a, 0xbe, 0x33, 0x40,
	0x2f, 0xbe, 0x7c, 0x04, 0x39, 0x3e, 0x55, 0x56, 0xdd, 0x3d, 0x27, 0xce,
	0x82, 0xbc, 0x00, 0x60, 0x0b, 0xbe, 0x68, 0x1d, 0x5f, 0xbe, 0x75, 0xda,
	0xf2, 0xbd, 0x55, 0x1f, 0xb8, 0xbd, 0x48, 0x14, 0x03, 0xbe, 0x1f, 0xd1,
	0x75, 0xbd, 0x33, 0xa4, 0xbe, 0xbd, 0xbb, 0xd4, 0x28, 0xbe, 0xac, 0x7f,
	0x8d, 0xbd, 0x54, 0xfd, 0x66, 0x3d, 0x4f, 0x80, 0xa8, 0x3d, 0xba, 0xe7,
	0x01, 0xbe, 0xea, 0xfc, 0x9d, 0x3d, 0xa7, 0x3a, 0xa7, 0x3e, 0x1b, 0x09,
	0x23, 0x3e, 0x9d, 0xaa, 0x25, 0xbd, 0xc0, 0xe2, 0x00, 0xbe, 0xbd, 0x39,
	0x86, 0x3e, 0xbf, 0xf4, 0xa3, 0x3e, 0x27, 0x73, 0xef, 0x3d, 0x03, 0xbe,
	0x97, 0x3e, 0x8c, 0xd4, 0xd2, 0x3e, 0x45, 0xd3, 0x82, 0xbd, 0x69, 0x3e,
	0xc5, 0x3d, 0x4e, 0xc2, 0xd0, 0xbd, 0x8f, 0x10, 0x94, 0xbd, 0x20, 0xaf,
	0x91, 0x3c, 0x0e, 0xfb, 0xf9, 0xbd, 0xaa, 0xf5, 0x8c, 0x3d, 0xc7, 0xfb,
	0xa4, 0xbe, 0x8a, 0x11, 0xe5, 0xbe, 0x4f, 0x43, 0x59, 0xbe, 0xa0, 0x81,
	0x33, 0xbd, 0x37, 0x81, 0x52, 0xbe, 0x64, 0x31, 0x4e, 0xbe, 0xc8, 0xc5,
	0x67, 0xbe, 0x5a, 0x6a, 0xa6, 0xbe, 0x90, 0xd7, 0x3d, 0xbd, 0x06, 0xfa,
	0x1c, 0xbe, 0x40, 0xe0, 0x35, 0xbe, 0xf0, 0x4b, 0xb6, 0xbd, 0x03, 0xff,
	0xa6, 0xbe, 0xd6, 0xee, 0xd8, 0x3d, 0xe2, 0x1a, 0x96, 0x3e, 0xc7, 0xd3,
	0xbc, 0x3d, 0x44, 0x02, 0xdc, 0xbd, 0x4f, 0x35, 0xef, 0xbd, 0x70, 0x1c,
	0xe5, 0x3d, 0x54, 0x7d, 0x24, 0x3e, 0x32, 0xab, 0x43, 0x3e, 0x03, 0xd3,
	0x8a, 0xbc, 0x92, 0x12, 0xba, 0xbd, 0xb6, 0x06, 0x0e, 0x3c, 0x85, 0x46,
	0xb4, 0xbd, 0x2b, 0x6a, 0x62, 0x3e, 0xd4, 0xd7, 0xa2, 0x3e, 0xf0, 0xf3,
	0x0d, 0xbe, 0x54, 0xaf, 0x77, 0x3d, 0x97, 0x9c, 0x24, 0x3c, 0x92, 0x6a,
	0x66, 0x3d, 0xf9, 0x03, 0x65, 0x3e, 0xad, 0x9f, 0x27, 0x3d, 0xba, 0x49,
	0x84, 0xbb, 0x1b, 0xe3, 0x49, 0x3a, 0x06, 0x7a, 0x8f, 0x3e, 0x12, 0x73,
	0xf4, 0x3c, 0x97, 0x4c, 0x0b, 0xbd, 0xb1, 0x6f, 0x52, 0xbe, 0xbb, 0x31,
	0x5d, 0xbe, 0x7c, 0xce, 0xd2, 0xbe, 0x77, 0x3e, 0x4a, 0xbe, 0x4c, 0x96,
	0x5d, 0xbe, 0x03, 0x0b, 0x06, 0xbe, 0x25, 0xf4, 0x63, 0xbe, 0x4e, 0x6e,
	0x81, 0xbe, 0x65, 0x53, 0x89, 0xbd, 0xee, 0xef, 0x03, 0xbe, 0x3a, 0xc8,
	0xe5, 0x3c, 0x46, 0x10, 0x89, 0x3d, 0x0c, 0xb6, 0xa9, 0xbc, 0x7a, 0x7e,
	0xaf, 0xbd, 0x4e, 0x21, 0x2a, 0x3e, 0x16, 0x00, 0x0b, 0x3e, 0xc2, 0x1e,
	0x55, 0x3d, 0x0d, 0xbf, 0x1a, 0xbe, 0xc5, 0xce, 0x33, 0xbe, 0x0b, 0x21,
	0x51, 0x3e, 0x38, 0xc7, 0x63, 0xbd, 0xb4, 0xe4, 0x1e, 0xbe, 0xb5, 0x51,
	0x81, 0xbe, 0x90, 0xb6, 0x36, 0x3d, 0xd6, 0x50, 0x29, 0x3e, 0x83, 0x96,
	0x9f, 0x3e, 0x13, 0x84, 0x3a, 0x3c, 0xa5, 0x41, 0x76, 0x3d, 0xa4, 0x74,
	0x1b, 0xbe, 0x4e, 0x02, 0xe0, 0x3c, 0xfc, 0x2e, 0x3d, 0xbd, 0x53, 0x76,
	0xcb, 0xbd, 0x3d, 0x33, 0xb9, 0x3d, 0x15, 0xb5, 0xfa, 0xbd, 0x35, 0xdd,
	0x66, 0xbd, 0x4b, 0x46, 0xca, 0xbd, 0x57, 0x79, 0xe6, 0xbc, 0x97, 0xcc,
	0xc6, 0xbd, 0x53, 0x91, 0xeb, 0xbb, 0x08, 0x36, 0x38, 0xbe, 0xc5, 0x1c,
	0x83, 0xbd, 0x4e, 0x87, 0xde, 0xbc, 0x54, 0xb5, 0x8a, 0xbe, 0x3f, 0x7a,
	0x38, 0xbe, 0x92, 0x17, 0xbe, 0xbe, 0x4e, 0xf5, 0x7b, 0x3c, 0x8f, 0x03,
	0x61, 0xbe, 0xba, 0xbf, 0x93, 0xbc, 0x78, 0x65, 0x1d, 0xbe, 0x5e, 0x81,
	0x2a, 0xbe, 0x5b, 0xbf, 0x03, 0xbe, 0xf2, 0x8d, 0x8a, 0xbe, 0x04, 0x0f,
	0x28, 0xbd, 0x5f, 0x64, 0x22, 0x3e, 0xf2, 0x63, 0xe5, 0x3d, 0x6b, 0xf4,
	0xa4, 0x3d, 0x34, 0x82, 0x49, 0xbe, 0xb0, 0xff, 0xb5, 0xbe, 0xae, 0xc1,
	0x0b, 0x3e, 0x51, 0x5e, 0x5f, 0x3e, 0xb0, 0x55, 0xf7, 0x3c, 0xb1, 0x93,
	0x3a, 0xbc, 0x54, 0xf1, 0x68, 0xbe, 0x76, 0x3b, 0x81, 0xbc, 0x48, 0x42,
	0x2d, 0x3e, 0xe7, 0x61, 0x1d, 0x3e, 0x8d, 0xe5, 0x80, 0x3d, 0x1a, 0x34,
	0x20, 0xbe, 0x92, 0x17, 0x50, 0x3c, 0x65, 0x9d, 0x0f, 0x3d, 0xb7, 0x79,
	0xd3, 0xbc, 0x43, 0xba, 0xc5, 0xbc, 0xbc, 0x9b, 0x39, 0xbc, 0xac, 0xf4,
	0x25, 0x3d, 0x5e, 0xab, 0xff, 0x3b, 0x2e, 0xd4, 0xd9, 0x3d, 0xe5, 0xe2,
	0x2a, 0xbe, 0x13, 0xdd, 0xaf, 0xbe, 0x6d, 0xc5, 0xa2, 0xbd, 0x08, 0x26,
	0x88, 0xbd, 0x2f, 0x6b, 0xc1, 0xbb, 0x10, 0x23, 0x2a, 0xbe, 0x5e, 0xe0,
	0xbe, 0xbe, 0xbf, 0x84, 0x5f, 0xbe, 0x4e, 0x07, 0xfa, 0x3d, 0x05, 0xab,
	0x92, 0x3d, 0xa0, 0xff, 0xee, 0xbd, 0x76, 0x68, 0x85, 0xbe, 0xf2, 0x45,
	0xe4, 0xbd, 0x9c, 0xe2, 0xab, 0x3e, 0x38, 0x05, 0xc3, 0x3d, 0xde, 0x38,
	0xbe, 0x3d, 0x0f, 0x6f, 0xb2, 0xba, 0x87, 0xc9, 0x3c, 0x3d, 0xce, 0x72,
	0xde, 0x3d, 0x26, 0xcf, 0x8c, 0xbd, 0xd1, 0x11, 0x92, 0x3d, 0x68, 0xc3,
	0x1f, 0x3d, 0x94, 0x7a, 0x83, 0xbc, 0x41, 0xb6, 0x20, 0xbd, 0x01, 0x98,
	0x1e, 0xbe, 0x29, 0xa4, 0xff, 0x3d, 0xb7, 0x9a, 0x56, 0x3e, 0xce, 0x43,
	0x09, 0xbc, 0xb2, 0x39, 0x85, 0x3c, 0x63, 0xf4, 0x07, 0x3e, 0x22, 0x1f,
	0x89, 0x3d, 0x9b, 0x1a, 0x12, 0xbe, 0xca, 0x10, 0x45, 0x3d, 0x15, 0xdd,
	0x22, 0x3e, 0xdf, 0x57, 0x2b, 0x3e, 0x59, 0x20, 0xf1, 0xbd, 0x07, 0x75,
	0x10, 0xbe, 0x87, 0x74, 0x8d, 0xbd, 0xcc, 0x82, 0xfc, 0x3d, 0x8f, 0x7a,
	0xcd, 0xbd, 0x08, 0x50, 0x07, 0xbd, 0x77, 0x1c, 0x92, 0xbd, 0x56, 0x49,
	0x51, 0xbd, 0x2d, 0x5f, 0x5c, 0xbe, 0x4b, 0x7d, 0x21, 0xbe, 0x63, 0xc8,
	0xef, 0x3d, 0x3b, 0xb7, 0x29, 0x39, 0xa9, 0xdb, 0x16, 0x3e, 0xed, 0x9e,
	0x6c, 0xbc, 0x1b, 0xc7, 0x9d, 0x3d, 0x17, 0x02, 0x06, 0xbc, 0x23, 0xd5,
	0xc2, 0xbd, 0x85, 0xec, 0xab, 0xbc, 0xe2, 0xfb, 0xfc, 0x3d, 0x2b, 0x5c,
	0x05, 0x3e, 0x80, 0x56, 0x9e, 0x3d, 0xdc, 0x3b, 0xb6, 0x3d, 0x5d, 0xaa,
	0x5c, 0x3d, 0x02, 0x9d, 0x4a, 0x3d, 0x1c, 0x3b, 0x53, 0xbd, 0xa0, 0xab,
	0x24, 0x3d, 0x0e, 0x98, 0x76, 0x3d, 0x3c, 0x1e, 0xa4, 0x3d, 0x60, 0xbf,
	0x4c, 0x3e, 0x71, 0xfc, 0x3c, 0x3e, 0x0c, 0xa3, 0x81, 0xbd, 0x53, 0x71,
	0x78, 0xbc, 0xe0, 0xb7, 0xca, 0x3d, 0x79, 0x1c, 0x4f, 0x3e, 0xb2, 0xea,
	0xc2, 0xbd, 0x42, 0x01, 0x24, 0xbe, 0xb1, 0x2c, 0x6c, 0xbe, 0xa9, 0x7a,
